node {
  name: "global_step/Initializer/zeros"
  op: "Const"
  attr {
    key: "_class"
    value {
      list {
        s: "loc:@global_step"
      }
    }
  }
  attr {
    key: "_output_shapes"
    value {
      list {
        shape {
        }
      }
    }
  }
  attr {
    key: "dtype"
    value {
      type: DT_INT64
    }
  }
  attr {
    key: "value"
    value {
      tensor {
        dtype: DT_INT64
        tensor_shape {
        }
        int64_val: 0
      }
    }
  }
}
node {
  name: "global_step"
  op: "VariableV2"
  attr {
    key: "_class"
    value {
      list {
        s: "loc:@global_step"
      }
    }
  }
  attr {
    key: "_output_shapes"
    value {
      list {
        shape {
        }
      }
    }
  }
  attr {
    key: "container"
    value {
      s: ""
    }
  }
  attr {
    key: "dtype"
    value {
      type: DT_INT64
    }
  }
  attr {
    key: "shape"
    value {
      shape {
      }
    }
  }
  attr {
    key: "shared_name"
    value {
      s: ""
    }
  }
}
node {
  name: "global_step/Assign"
  op: "Assign"
  input: "global_step"
  input: "global_step/Initializer/zeros"
  attr {
    key: "T"
    value {
      type: DT_INT64
    }
  }
  attr {
    key: "_class"
    value {
      list {
        s: "loc:@global_step"
      }
    }
  }
  attr {
    key: "_output_shapes"
    value {
      list {
        shape {
        }
      }
    }
  }
  attr {
    key: "use_locking"
    value {
      b: true
    }
  }
  attr {
    key: "validate_shape"
    value {
      b: true
    }
  }
}
node {
  name: "global_step/read"
  op: "Identity"
  input: "global_step"
  attr {
    key: "T"
    value {
      type: DT_INT64
    }
  }
  attr {
    key: "_class"
    value {
      list {
        s: "loc:@global_step"
      }
    }
  }
  attr {
    key: "_output_shapes"
    value {
      list {
        shape {
        }
      }
    }
  }
}
node {
  name: "Const"
  op: "Const"
  attr {
    key: "_output_shapes"
    value {
      list {
        shape {
          dim {
            size: 704
          }
        }
      }
    }
  }
  attr {
    key: "dtype"
    value {
      type: DT_DOUBLE
    }
  }
  attr {
    key: "value"
    value {
      tensor {
        dtype: DT_DOUBLE
        tensor_shape {
          dim {
            size: 704
          }
        }
        tensor_content: "\000\000\000\000\000\000\360?\000\000\000\000\000\000\360?\000\000\000\000\000\000\340?\000\000\000\000\000\000\360?\000\000\000\000\000\000\360?\000\000\000\000\000\000\340?\000\000\000\000\000\000\340?\000\000\000\000\000\000\360?\000\000\000\000\000\000\340?\000\000\000\000\000\000\360?\000\000\000\000\000\000\360?\000\000\000\000\000\000\340?\000\000\000\000\000\000\360?\000\000\000\000\000\000\340?\000\000\000\000\000\000\000\000\000\000\000\000\000\000\360?\000\000\000\000\000\000\360?\000\000\000\000\000\000\340?\000\000\000\000\000\000\360?\000\000\000\000\000\000\360?\000\000\000\000\000\000\360?\000\000\000\000\000\000\340?\000\000\000\000\000\000\360?\000\000\000\000\000\000\360?\000\000\000\000\000\000\360?\000\000\000\000\000\000\360?\000\000\000\000\000\000\360?\000\000\000\000\000\000\360?\000\000\000\000\000\000\360?\000\000\000\000\000\000\340?\000\000\000\000\000\000\360?\000\000\000\000\000\000\000\000\000\000\000\000\000\000\000\000\000\000\000\000\000\000\360?\000\000\000\000\000\000\000\000\000\000\000\000\000\000\360?\000\000\000\000\000\000\360?\000\000\000\000\000\000\340?\000\000\000\000\000\000\360?\000\000\000\000\000\000\000\000\000\000\000\000\000\000\360?\000\000\000\000\000\000\360?\000\000\000\000\000\000\360?\000\000\000\000\000\000\000\000\000\000\000\000\000\000\360?\000\000\000\000\000\000\340?\000\000\000\000\000\000\360?\000\000\000\000\000\000\000\000\000\000\000\000\000\000\360?\000\000\000\000\000\000\360?\000\000\000\000\000\000\360?\000\000\000\000\000\000\340?\000\000\000\000\000\000\360?\000\000\000\000\000\000\000\000\000\000\000\000\000\000\340?\000\000\000\000\000\000\360?\000\000\000\000\000\000\360?\000\000\000\000\000\000\340?\000\000\000\000\000\000\360?\000\000\000\000\000\000\360?\000\000\000\000\000\000\360?\000\000\000\000\000\000\360?\000\000\000\000\000\000\000\000\000\000\000\000\000\000\360?\000\000\000\000\000\000\340?\000\000\000\000\000\000\340?\000\000\000\000\000\000\360?\000\000\000\000\000\000\360?\000\000\000\000\000\000\360?\000\000\000\000\000\000\360?\000\000\000\000\000\000\360?\000\000\000\000\000\000\340?\000\000\000\000\000\000\360?\000\000\000\000\000\000\340?\000\000\000\000\000\000\360?\000\000\000\000\000\000\340?\000\000\000\000\000\000\360?\000\000\000\000\000\000\360?\000\000\000\000\000\000\000\000\000\000\000\000\000\000\360?\000\000\000\000\000\000\360?\000\000\000\000\000\000\360?\000\000\000\000\000\000\360?\000\000\000\000\000\000\360?\000\000\000\000\000\000\340?\000\000\000\000\000\000\360?\000\000\000\000\000\000\340?\000\000\000\000\000\000\000\000\000\000\000\000\000\000\360?\000\000\000\000\000\000\000\000\000\000\000\000\000\000\360?\000\000\000\000\000\000\360?\000\000\000\000\000\000\360?\000\000\000\000\000\000\360?\000\000\000\000\000\000\360?\000\000\000\000\000\000\000\000\000\000\000\000\000\000\360?\000\000\000\000\000\000\360?\000\000\000\000\000\000\360?\000\000\000\000\000\000\360?\000\000\000\000\000\000\000\000\000\000\000\000\000\000\360?\000\000\000\000\000\000\340?\000\000\000\000\000\000\340?\000\000\000\000\000\000\360?\000\000\000\000\000\000\360?\000\000\000\000\000\000\360?\000\000\000\000\000\000\000\000\000\000\000\000\000\000\000\000\000\000\000\000\000\000\360?\000\000\000\000\000\000\360?\000\000\000\000\000\000\000\000\000\000\000\000\000\000\340?\000\000\000\000\000\000\360?\000\000\000\000\000\000\000\000\000\000\000\000\000\000\360?\000\000\000\000\000\000\000\000\000\000\000\000\000\000\360?\000\000\000\000\000\000\360?\000\000\000\000\000\000\360?\000\000\000\000\000\000\000\000\000\000\000\000\000\000\000\000\000\000\000\000\000\000\360?\000\000\000\000\000\000\000\000\000\000\000\000\000\000\360?\000\000\000\000\000\000\360?\000\000\000\000\000\000\360?\000\000\000\000\000\000\360?\000\000\000\000\000\000\340?\000\000\000\000\000\000\360?\000\000\000\000\000\000\000\000\000\000\000\000\000\000\360?\000\000\000\000\000\000\360?\000\000\000\000\000\000\360?\000\000\000\000\000\000\360?\000\000\000\000\000\000\340?\000\000\000\000\000\000\000\000\000\000\000\000\000\000\340?\000\000\000\000\000\000\360?\000\000\000\000\000\000\360?\000\000\000\000\000\000\360?\000\000\000\000\000\000\360?\000\000\000\000\000\000\340?\000\000\000\000\000\000\360?\000\000\000\000\000\000\340?\000\000\000\000\000\000\360?\000\000\000\000\000\000\360?\000\000\000\000\000\000\360?\000\000\000\000\000\000\360?\000\000\000\000\000\000\360?\000\000\000\000\000\000\360?\000\000\000\000\000\000\340?\000\000\000\000\000\000\360?\000\000\000\000\000\000\000\000\000\000\000\000\000\000\360?\000\000\000\000\000\000\340?\000\000\000\000\000\000\360?\000\000\000\000\000\000\360?\000\000\000\000\000\000\340?\000\000\000\000\000\000\360?\000\000\000\000\000\000\340?\000\000\000\000\000\000\360?\000\000\000\000\000\000\360?\000\000\000\000\000\000\360?\000\000\000\000\000\000\000\000\000\000\000\000\000\000\340?\000\000\000\000\000\000\360?\000\000\000\000\000\000\000\000\000\000\000\000\000\000\360?\000\000\000\000\000\000\360?\000\000\000\000\000\000\360?\000\000\000\000\000\000\360?\000\000\000\000\000\000\340?\000\000\000\000\000\000\360?\000\000\000\000\000\000\360?\000\000\000\000\000\000\340?\000\000\000\000\000\000\360?\000\000\000\000\000\000\360?\000\000\000\000\000\000\360?\000\000\000\000\000\000\360?\000\000\000\000\000\000\360?\000\000\000\000\000\000\360?\000\000\000\000\000\000\360?\000\000\000\000\000\000\360?\000\000\000\000\000\000\340?\000\000\000\000\000\000\360?\000\000\000\000\000\000\360?\000\000\000\000\000\000\360?\000\000\000\000\000\000\340?\000\000\000\000\000\000\360?\000\000\000\000\000\000\340?\000\000\000\000\000\000\360?\000\000\000\000\000\000\360?\000\000\000\000\000\000\360?\000\000\000\000\000\000\360?\000\000\000\000\000\000\340?\000\000\000\000\000\000\360?\000\000\000\000\000\000\360?\000\000\000\000\000\000\360?\000\000\000\000\000\000\360?\000\000\000\000\000\000\360?\000\000\000\000\000\000\360?\000\000\000\000\000\000\340?\000\000\000\000\000\000\000\000\000\000\000\000\000\000\360?\000\000\000\000\000\000\360?\000\000\000\000\000\000\340?\000\000\000\000\000\000\360?\000\000\000\000\000\000\340?\000\000\000\000\000\000\340?\000\000\000\000\000\000\360?\000\000\000\000\000\000\360?\000\000\000\000\000\000\360?\000\000\000\000\000\000\340?\000\000\000\000\000\000\000\000\000\000\000\000\000\000\340?\000\000\000\000\000\000\360?\000\000\000\000\000\000\360?\000\000\000\000\000\000\360?\000\000\000\000\000\000\340?\000\000\000\000\000\000\340?\000\000\000\000\000\000\360?\000\000\000\000\000\000\360?\000\000\000\000\000\000\340?\000\000\000\000\000\000\360?\000\000\000\000\000\000\360?\000\000\000\000\000\000\340?\000\000\000\000\000\000\340?\000\000\000\000\000\000\360?\000\000\000\000\000\000\360?\000\000\000\000\000\000\340?\000\000\000\000\000\000\360?\000\000\000\000\000\000\360?\000\000\000\000\000\000\360?\000\000\000\000\000\000\360?\000\000\000\000\000\000\360?\000\000\000\000\000\000\360?\000\000\000\000\000\000\360?\000\000\000\000\000\000\360?\000\000\000\000\000\000\360?\000\000\000\000\000\000\360?\000\000\000\000\000\000\340?\000\000\000\000\000\000\360?\000\000\000\000\000\000\000\000\000\000\000\000\000\000\360?\000\000\000\000\000\000\360?\000\000\000\000\000\000\000\000\000\000\000\000\000\000\360?\000\000\000\000\000\000\340?\000\000\000\000\000\000\360?\000\000\000\000\000\000\340?\000\000\000\000\000\000\360?\000\000\000\000\000\000\000\000\000\000\000\000\000\000\340?\000\000\000\000\000\000\360?\000\000\000\000\000\000\360?\000\000\000\000\000\000\340?\000\000\000\000\000\000\360?\000\000\000\000\000\000\340?\000\000\000\000\000\000\340?\000\000\000\000\000\000\360?\000\000\000\000\000\000\360?\000\000\000\000\000\000\360?\000\000\000\000\000\000\340?\000\000\000\000\000\000\340?\000\000\000\000\000\000\360?\000\000\000\000\000\000\340?\000\000\000\000\000\000\360?\000\000\000\000\000\000\360?\000\000\000\000\000\000\360?\000\000\000\000\000\000\360?\000\000\000\000\000\000\360?\000\000\000\000\000\000\340?\000\000\000\000\000\000\000\000\000\000\000\000\000\000\000\000\000\000\000\000\000\000\360?\000\000\000\000\000\000\340?\000\000\000\000\000\000\360?\000\000\000\000\000\000\360?\000\000\000\000\000\000\340?\000\000\000\000\000\000\340?\000\000\000\000\000\000\000\000\000\000\000\000\000\000\340?\000\000\000\000\000\000\360?\000\000\000\000\000\000\360?\000\000\000\000\000\000\340?\000\000\000\000\000\000\360?\000\000\000\000\000\000\340?\000\000\000\000\000\000\360?\000\000\000\000\000\000\000\000\000\000\000\000\000\000\340?\000\000\000\000\000\000\360?\000\000\000\000\000\000\000\000\000\000\000\000\000\000\340?\000\000\000\000\000\000\000\000\000\000\000\000\000\000\360?\000\000\000\000\000\000\340?\000\000\000\000\000\000\340?\000\000\000\000\000\000\360?\000\000\000\000\000\000\360?\000\000\000\000\000\000\360?\000\000\000\000\000\000\000\000\000\000\000\000\000\000\360?\000\000\000\000\000\000\360?\000\000\000\000\000\000\360?\000\000\000\000\000\000\340?\000\000\000\000\000\000\340?\000\000\000\000\000\000\000\000\000\000\000\000\000\000\000\000\000\000\000\000\000\000\000\000\000\000\000\000\000\000\360?\000\000\000\000\000\000\340?\000\000\000\000\000\000\360?\000\000\000\000\000\000\360?\000\000\000\000\000\000\340?\000\000\000\000\000\000\340?\000\000\000\000\000\000\000\000\000\000\000\000\000\000\000\000\000\000\000\000\000\000\000\000\000\000\000\000\000\000\340?\000\000\000\000\000\000\360?\000\000\000\000\000\000\360?\000\000\000\000\000\000\000\000\000\000\000\000\000\000\360?\000\000\000\000\000\000\360?\000\000\000\000\000\000\360?\000\000\000\000\000\000\360?\000\000\000\000\000\000\340?\000\000\000\000\000\000\000\000\000\000\000\000\000\000\360?\000\000\000\000\000\000\000\000\000\000\000\000\000\000\360?\000\000\000\000\000\000\000\000\000\000\000\000\000\000\360?\000\000\000\000\000\000\360?\000\000\000\000\000\000\340?\000\000\000\000\000\000\360?\000\000\000\000\000\000\360?\000\000\000\000\000\000\360?\000\000\000\000\000\000\340?\000\000\000\000\000\000\000\000\000\000\000\000\000\000\000\000\000\000\000\000\000\000\000\000\000\000\000\000\000\000\340?\000\000\000\000\000\000\360?\000\000\000\000\000\000\360?\000\000\000\000\000\000\360?\000\000\000\000\000\000\360?\000\000\000\000\000\000\000\000\000\000\000\000\000\000\340?\000\000\000\000\000\000\340?\000\000\000\000\000\000\360?\000\000\000\000\000\000\360?\000\000\000\000\000\000\000\000\000\000\000\000\000\000\360?\000\000\000\000\000\000\360?\000\000\000\000\000\000\340?\000\000\000\000\000\000\000\000\000\000\000\000\000\000\360?\000\000\000\000\000\000\360?\000\000\000\000\000\000\360?\000\000\000\000\000\000\360?\000\000\000\000\000\000\000\000\000\000\000\000\000\000\360?\000\000\000\000\000\000\340?\000\000\000\000\000\000\000\000\000\000\000\000\000\000\340?\000\000\000\000\000\000\340?\000\000\000\000\000\000\340?\000\000\000\000\000\000\000\000\000\000\000\000\000\000\360?\000\000\000\000\000\000\360?\000\000\000\000\000\000\000\000\000\000\000\000\000\000\360?\000\000\000\000\000\000\340?\000\000\000\000\000\000\340?\000\000\000\000\000\000\360?\000\000\000\000\000\000\360?\000\000\000\000\000\000\000\000\000\000\000\000\000\000\360?\000\000\000\000\000\000\360?\000\000\000\000\000\000\360?\000\000\000\000\000\000\360?\000\000\000\000\000\000\340?\000\000\000\000\000\000\360?\000\000\000\000\000\000\360?\000\000\000\000\000\000\360?\000\000\000\000\000\000\360?\000\000\000\000\000\000\360?\000\000\000\000\000\000\360?\000\000\000\000\000\000\360?\000\000\000\000\000\000\000\000\000\000\000\000\000\000\340?\000\000\000\000\000\000\340?\000\000\000\000\000\000\360?\000\000\000\000\000\000\000\000\000\000\000\000\000\000\340?\000\000\000\000\000\000\360?\000\000\000\000\000\000\000\000\000\000\000\000\000\000\360?\000\000\000\000\000\000\360?\000\000\000\000\000\000\340?\000\000\000\000\000\000\340?\000\000\000\000\000\000\000\000\000\000\000\000\000\000\360?\000\000\000\000\000\000\360?\000\000\000\000\000\000\360?\000\000\000\000\000\000\360?\000\000\000\000\000\000\340?\000\000\000\000\000\000\340?\000\000\000\000\000\000\360?\000\000\000\000\000\000\360?\000\000\000\000\000\000\340?\000\000\000\000\000\000\000\000\000\000\000\000\000\000\360?\000\000\000\000\000\000\340?\000\000\000\000\000\000\360?\000\000\000\000\000\000\340?\000\000\000\000\000\000\360?\000\000\000\000\000\000\360?\000\000\000\000\000\000\360?\000\000\000\000\000\000\340?\000\000\000\000\000\000\360?\000\000\000\000\000\000\360?\000\000\000\000\000\000\340?\000\000\000\000\000\000\000\000\000\000\000\000\000\000\360?\000\000\000\000\000\000\360?\000\000\000\000\000\000\360?\000\000\000\000\000\000\360?\000\000\000\000\000\000\360?\000\000\000\000\000\000\360?\000\000\000\000\000\000\340?\000\000\000\000\000\000\360?\000\000\000\000\000\000\340?\000\000\000\000\000\000\340?\000\000\000\000\000\000\360?\000\000\000\000\000\000\340?\000\000\000\000\000\000\360?\000\000\000\000\000\000\000\000\000\000\000\000\000\000\340?\000\000\000\000\000\000\360?\000\000\000\000\000\000\360?\000\000\000\000\000\000\360?\000\000\000\000\000\000\000\000\000\000\000\000\000\000\340?\000\000\000\000\000\000\360?\000\000\000\000\000\000\360?\000\000\000\000\000\000\360?\000\000\000\000\000\000\360?\000\000\000\000\000\000\360?\000\000\000\000\000\000\360?\000\000\000\000\000\000\340?\000\000\000\000\000\000\360?\000\000\000\000\000\000\360?\000\000\000\000\000\000\340?\000\000\000\000\000\000\360?\000\000\000\000\000\000\360?\000\000\000\000\000\000\360?\000\000\000\000\000\000\340?\000\000\000\000\000\000\000\000\000\000\000\000\000\000\000\000\000\000\000\000\000\000\340?\000\000\000\000\000\000\360?\000\000\000\000\000\000\360?\000\000\000\000\000\000\360?\000\000\000\000\000\000\360?\000\000\000\000\000\000\000\000\000\000\000\000\000\000\360?\000\000\000\000\000\000\360?\000\000\000\000\000\000\360?\000\000\000\000\000\000\360?\000\000\000\000\000\000\360?\000\000\000\000\000\000\340?\000\000\000\000\000\000\360?\000\000\000\000\000\000\360?\000\000\000\000\000\000\340?\000\000\000\000\000\000\360?\000\000\000\000\000\000\340?\000\000\000\000\000\000\360?\000\000\000\000\000\000\360?\000\000\000\000\000\000\360?\000\000\000\000\000\000\340?\000\000\000\000\000\000\360?\000\000\000\000\000\000\360?\000\000\000\000\000\000\360?\000\000\000\000\000\000\360?\000\000\000\000\000\000\360?\000\000\000\000\000\000\360?\000\000\000\000\000\000\000\000\000\000\000\000\000\000\340?\000\000\000\000\000\000\360?\000\000\000\000\000\000\340?\000\000\000\000\000\000\360?\000\000\000\000\000\000\360?\000\000\000\000\000\000\360?\000\000\000\000\000\000\360?\000\000\000\000\000\000\340?\000\000\000\000\000\000\340?\000\000\000\000\000\000\360?\000\000\000\000\000\000\360?\000\000\000\000\000\000\360?\000\000\000\000\000\000\360?\000\000\000\000\000\000\360?\000\000\000\000\000\000\360?\000\000\000\000\000\000\360?\000\000\000\000\000\000\340?\000\000\000\000\000\000\360?\000\000\000\000\000\000\360?\000\000\000\000\000\000\340?\000\000\000\000\000\000\360?\000\000\000\000\000\000\360?\000\000\000\000\000\000\360?\000\000\000\000\000\000\360?\000\000\000\000\000\000\360?\000\000\000\000\000\000\360?\000\000\000\000\000\000\360?\000\000\000\000\000\000\360?\000\000\000\000\000\000\340?\000\000\000\000\000\000\000\000\000\000\000\000\000\000\360?\000\000\000\000\000\000\000\000\000\000\000\000\000\000\360?\000\000\000\000\000\000\360?\000\000\000\000\000\000\000\000\000\000\000\000\000\000\000\000\000\000\000\000\000\000\000\000\000\000\000\000\000\000\360?\000\000\000\000\000\000\360?\000\000\000\000\000\000\360?\000\000\000\000\000\000\360?\000\000\000\000\000\000\360?\000\000\000\000\000\000\360?\000\000\000\000\000\000\360?\000\000\000\000\000\000\360?\000\000\000\000\000\000\360?\000\000\000\000\000\000\340?\000\000\000\000\000\000\360?\000\000\000\000\000\000\360?\000\000\000\000\000\000\360?\000\000\000\000\000\000\340?\000\000\000\000\000\000\360?\000\000\000\000\000\000\360?\000\000\000\000\000\000\360?\000\000\000\000\000\000\360?\000\000\000\000\000\000\360?\000\000\000\000\000\000\000\000\000\000\000\000\000\000\360?\000\000\000\000\000\000\360?\000\000\000\000\000\000\340?\000\000\000\000\000\000\360?\000\000\000\000\000\000\360?\000\000\000\000\000\000\000\000\000\000\000\000\000\000\360?\000\000\000\000\000\000\360?\000\000\000\000\000\000\340?\000\000\000\000\000\000\360?\000\000\000\000\000\000\340?\000\000\000\000\000\000\360?\000\000\000\000\000\000\360?\000\000\000\000\000\000\000\000\000\000\000\000\000\000\000\000\000\000\000\000\000\000\000\000\000\000\000\000\000\000\000\000\000\000\000\000\000\000\340?\000\000\000\000\000\000\360?\000\000\000\000\000\000\360?\000\000\000\000\000\000\340?\000\000\000\000\000\000\360?\000\000\000\000\000\000\360?\000\000\000\000\000\000\360?\000\000\000\000\000\000\360?\000\000\000\000\000\000\360?\000\000\000\000\000\000\360?\000\000\000\000\000\000\360?\000\000\000\000\000\000\000\000\000\000\000\000\000\000\340?\000\000\000\000\000\000\360?\000\000\000\000\000\000\360?\000\000\000\000\000\000\360?\000\000\000\000\000\000\340?\000\000\000\000\000\000\360?\000\000\000\000\000\000\000\000\000\000\000\000\000\000\340?\000\000\000\000\000\000\340?\000\000\000\000\000\000\340?\000\000\000\000\000\000\360?\000\000\000\000\000\000\360?\000\000\000\000\000\000\360?\000\000\000\000\000\000\360?\000\000\000\000\000\000\360?\000\000\000\000\000\000\360?\000\000\000\000\000\000\000\000\000\000\000\000\000\000\360?\000\000\000\000\000\000\360?\000\000\000\000\000\000\340?\000\000\000\000\000\000\360?\000\000\000\000\000\000\360?\000\000\000\000\000\000\360?\000\000\000\000\000\000\000\000\000\000\000\000\000\000\340?\000\000\000\000\000\000\340?\000\000\000\000\000\000\360?\000\000\000\000\000\000\340?\000\000\000\000\000\000\000\000\000\000\000\000\000\000\000\000\000\000\000\000\000\000\340?\000\000\000\000\000\000\340?\000\000\000\000\000\000\000\000\000\000\000\000\000\000\360?\000\000\000\000\000\000\360?\000\000\000\000\000\000\360?\000\000\000\000\000\000\340?\000\000\000\000\000\000\000\000\000\000\000\000\000\000\340?\000\000\000\000\000\000\360?\000\000\000\000\000\000\000\000\000\000\000\000\000\000\340?\000\000\000\000\000\000\340?\000\000\000\000\000\000\360?\000\000\000\000\000\000\360?\000\000\000\000\000\000\360?\000\000\000\000\000\000\000\000\000\000\000\000\000\000\000\000\000\000\000\000\000\000\360?\000\000\000\000\000\000\360?\000\000\000\000\000\000\360?\000\000\000\000\000\000\360?\000\000\000\000\000\000\360?\000\000\000\000\000\000\360?\000\000\000\000\000\000\360?\000\000\000\000\000\000\340?\000\000\000\000\000\000\360?\000\000\000\000\000\000\340?\000\000\000\000\000\000\360?\000\000\000\000\000\000\360?\000\000\000\000\000\000\360?\000\000\000\000\000\000\360?\000\000\000\000\000\000\000\000\000\000\000\000\000\000\360?\000\000\000\000\000\000\360?\000\000\000\000\000\000\000\000\000\000\000\000\000\000\360?\000\000\000\000\000\000\360?\000\000\000\000\000\000\360?\000\000\000\000\000\000\000\000\000\000\000\000\000\000\360?\000\000\000\000\000\000\000\000\000\000\000\000\000\000\360?\000\000\000\000\000\000\360?\000\000\000\000\000\000\360?\000\000\000\000\000\000\360?\000\000\000\000\000\000\360?\000\000\000\000\000\000\360?\000\000\000\000\000\000\360?\000\000\000\000\000\000\360?\000\000\000\000\000\000\360?\000\000\000\000\000\000\360?\000\000\000\000\000\000\340?\000\000\000\000\000\000\340?\000\000\000\000\000\000\360?\000\000\000\000\000\000\340?\000\000\000\000\000\000\360?\000\000\000\000\000\000\360?\000\000\000\000\000\000\360?\000\000\000\000\000\000\360?\000\000\000\000\000\000\360?\000\000\000\000\000\000\360?\000\000\000\000\000\000\360?\000\000\000\000\000\000\340?\000\000\000\000\000\000\360?\000\000\000\000\000\000\360?\000\000\000\000\000\000\360?\000\000\000\000\000\000\360?\000\000\000\000\000\000\360?\000\000\000\000\000\000\360?\000\000\000\000\000\000\000\000\000\000\000\000\000\000\360?\000\000\000\000\000\000\360?\000\000\000\000\000\000\360?\000\000\000\000\000\000\000\000\000\000\000\000\000\000\340?\000\000\000\000\000\000\360?\000\000\000\000\000\000\360?\000\000\000\000\000\000\360?\000\000\000\000\000\000\360?\000\000\000\000\000\000\340?\000\000\000\000\000\000\360?\000\000\000\000\000\000\360?\000\000\000\000\000\000\360?\000\000\000\000\000\000\360?\000\000\000\000\000\000\340?\000\000\000\000\000\000\360?\000\000\000\000\000\000\360?\000\000\000\000\000\000\360?\000\000\000\000\000\000\360?\000\000\000\000\000\000\360?\000\000\000\000\000\000\000\000\000\000\000\000\000\000\340?\000\000\000\000\000\000\360?\000\000\000\000\000\000\360?\000\000\000\000\000\000\360?\000\000\000\000\000\000\360?\000\000\000\000\000\000\360?"
      }
    }
  }
}
node {
  name: "Const_1"
  op: "Const"
  attr {
    key: "_output_shapes"
    value {
      list {
        shape {
          dim {
            size: 704
          }
        }
      }
    }
  }
  attr {
    key: "dtype"
    value {
      type: DT_DOUBLE
    }
  }
  attr {
    key: "value"
    value {
      tensor {
        dtype: DT_DOUBLE
        tensor_shape {
          dim {
            size: 704
          }
        }
        tensor_content: ".o\214`\242\277\303?\000\000\000\000\000\000\000\000D\177\'\253\345\215\261?.o\214`\242\277\323?\214\346\304\335\236\343\342?\000\000\000\000\000\000\000\000\222$I\222$I\302?\2741\202\211\376N\346?\035\324A\035\324A\255?.o\214`\242\277\343?D\177\'\253\345\215\341?\000\000\000\000\000\000\000\000\026_\361\025_\361\325?z\024\256G\341z\304?\307\305\024k6R\345?\000\000\000\000\000\000\000\000D\177\'\253\345\215\221?\240\224\014\277\031\370\240?\317. 6\225\206\334?D\177\'\253\345\215\261?\310\271\317. 6\305?\327)\223[\025\345\203?\324A\035\324A\035\324?\000\000\000\000\000\000\000\000\026_\361\025_\361\325?\222$I\222$I\302?\247\t]\306\216H\250?L\364w\262Z\336\330?\035\324A\035\324A\275?\035\324A\035\324A\315?\222$I\222$I\262?\035\324A\035\324A\215?5\344\334g\027\020\333?\026_\361\025_\361\305?\347>\273\200\330T\272?z\024\256G\341z\304?_4\'\356\366\034\307?\261\2514\344\334g\247?X|\305W|\305\327?_\361\025_\361\025\337?\333\266m\333\266m\333?D\177\'\253\345\215\261?\310\271\317. 6\325?\026_\361\025_\361\265?\202\211\376NV\313\273?\367\331\005\304\246\322\300?2?xoIO\243?z\024\256G\341z\244?\000\000\000\000\000\000\000\000\035\324A\035\324A\275?\367_(\342\261\340\340?D\177\'\253\345\215\261?\035\324A\035\324A\275?\035\324A\035\324A\275?\026_\361\025_\361\305?\n\327\243p=\n\327?\"\347>\273\200\330\324?\000\000\000\000\000\000\000\000\323\nQ\201R2\334?P\007uP\007u\320?\216T]\203}\271r?;\337O\215\227n\342?\376NV\313\033#\310?\000\000\000\000\000\000\000\000\202\211\376NV\313\313?\354Q\270\036\205\353\321?z\024\256G\341z\304?\005\304\246\322\220s\317?5\344\334g\027\020\333?\026_\361\025_\361\305?\270\036\205\353Q\270\316?\222$I\222$I\302?\310\271\317. 6\325?\026_\361\025_\361\265?\310\271\317. 6\325?\000\000\000\000\000\000\000\000X|\305W|\305\307?P\007uP\007u\300?\035\324A\035\324A\315?\202\211\376NV\313\313?\261\2514\344\334g\267?\333\266m\333\266m\353?uP\007uP\007\345?\316}v\001\261\251\344?\000\000\000\000\000\000\000\000z\024\256G\341z\304?\000\000\000\000\000\000\000\000\026_\361\025_\361\305?\000\000\000\000\000\000\000\000\231\231\231\231\231\231\311?P\007uP\007u\340?\310\271\317. 6\305?\000\000\000\000\000\000\000\000d\301\001n\230\245\336?>\204\264\205e/\332?\270\036\205\353Q\270\316?\200\241\210\307\202\003\314?P\007uP\007u\340?\324A\035\324A\035\344?\000\000\000\000\000\000\000\000\254\2267F0\321\337?P\007uP\007u\300?P\007uP\007u\340?z\024\256G\341z\304?\231\334\252(\237\240\321?X|\305W|\305\327?\236\254\2267F0\321?D\177\'\253\345\215\321?X|\305W|\305\327?\202\211\376NV\313\333?L\364w\262Z\336\310?\276\342+\276\342+\336?\000\000\000\000\000\000\000\000<\323\nQ\201R\322?P\007uP\007u\340?\347>\273\200\330T\272?\375\235\254\2267F\340?\310\271\317. 6\305?/W\002\350u\207\303?\347>\273\200\330T\312?\000\000\000\000\000\000\000\000L\364w\262Z\336\330?\236\254\2267F0\321?\035\324A\035\324A\335?\000\000\000\000\000\000\000\000\2524\344\334g\027\300?\026_\361\025_\361\325?\000\000\000\000\000\000\000\000\035\324A\035\324A\315?\222$I\222$I\342?\000\000\000\000\000\000\000\000w\001\261\2514\344\334?uP\007uP\007\345?\035\324A\035\324A\335?\000\000\000\000\000\000\000\000\222$I\222$I\322?_4\'\356\366\034\267?z\024\256G\341z\304?\000\000\000\000\000\000\000\000\202\211\376NV\313\313?\035\324A\035\324A\255?\022L\364w\262Z\336?\343n\317q1\305\272?\026_\361\025_\361\305?z\024\256G\341z\264?\026_\361\025_\361\265?\026_\361\025_\361\265?\026_\361\025_\361\305?\303\246\322\220s\237\335?9\367\331\005\304\246\322?D\177\'\253\345\215\321?\000\000\000\000\000\000\000\000\222$I\222$I\322?5\344\334g\027\020\313?\035\324A\035\324A\315?\202\211\376NV\313\273?\026_\361\025_\361\245?\2524\344\334g\027\300?\000\000\000\000\000\000\000\000\261\2514\344\334g\247?\026_\361\025_\361\305?\231\231\231\231\231\231\331?\303\246\322\220s\237\335?\222$I\222$I\302?\222$I\222$I\302?\000\000\000\000\000\000\000\000P\007uP\007u\340?\035\324A\035\324A\275?uP\007uP\007\325?\202\211\376NV\313\273?\324A\035\324A\035\344?\000\000\000\000\000\000\000\0009\367\331\005\304\246\322?\035\324A\035\324A\255?\000\000\000\000\000\000\000\000\000\000\000\000\000\000\000\000\202\211\376NV\313\273?\222$I\222$I\322?X|\305W|\305\327?\000\000\000\000\000\000\000\000\026_\361\025_\361\305?\000\000\000\000\000\000\000\000\324A\035\324A\035\324?\231\231\231\231\231\231\271?9\367\331\005\304\246\342?\000\000\000\000\000\000\000\000\000\000\000\000\000\000\000\000\376NV\313\033#\310?\247\t]\306\216H\250?R\270\036\205\353Q\350?\340\311jyc\004\263?\035\324A\035\324A\275?\035\324A\035\324A\275?\345\215\021L\364w\342?\035\324A\035\324A\315?\261\2514\344\334g\247?\231\231\231\231\231\231\331?\035\324A\035\324A\275?\231\231\231\231\231\231\311?L\364w\262Z\336\310?\333\266m\333\266m\333?\026_\361\025_\361\305?\026_\361\025_\361\265?\035\324A\035\324A\275?\000\000\000\000\000\000\000\000\261f#U\327`\337?\000\000\000\000\000\000\000\000\261\2514\344\334g\307?.o\214`\242\277\323?\000\000\000\000\000\000\000\000\000\000\000\000\000\000\000\000\035\324A\035\324A\275?\276\342+\276\342+\336?D\177\'\253\345\215\321?P\007uP\007u\320?\261\2514\344\334g\267?\035\324A\035\324A\275?\202\211\376NV\313\313?\270\036\205\353Q\270\276?\035\324A\035\324A\275?\2524\344\334g\027\300?\026_\361\025_\361\245?\236\254\2267F0\321?\000\000\000\000\000\000\000\000\261\2514\344\334g\267?\324A\035\324A\035\324?\000\000\000\000\000\000\000\000\365\361\217<\323\n\321?_\361\025_\361\025\337?\000\000\000\000\000\000\000\000\026_\361\025_\361\265?\324A\035\324A\035\324?L\364w\262Z\336\330?\026_\361\025_\361\265?\340\311jyc\004\303?o\214`\242\277\223\325?\000\000\000\000\000\000\000\000\035\324A\035\324A\275?\202\211\376NV\313\333?\206\234\373\354\002b\323?P\007uP\007u\320?\343n\317q1\305\312?L\364w\262Z\336\330?\000\000\000\000\000\000\000\000\000\000\000\000\000\000\000\000\035\324A\035\324A\275?\035\324A\035\324A\255?D\177\'\253\345\215\261?\000\000\000\000\000\000\000\000:\250\203:\250\203\332?P\007uP\007u\320?\340\311jyc\004\303?\236\254\2267F0\321?\035\324A\035\324A\255?\035\324A\035\324A\335?\000\000\000\000\000\000\000\000\222$I\222$I\302?\000\000\000\000\000\000\000\000\000\000\000\000\000\000\000\000\000\000\000\000\000\000\000\000\222$I\222$I\302?\026_\361\025_\361\305?\000\000\000\000\000\000\000\000\267m\333\266m\333\346?\000\000\000\000\000\000\000\000X|\305W|\305\347?\222$I\222$I\322?\026_\361\025_\361\325?\000\000\000\000\000\000\000\000\026_\361\025_\361\305?\026_\361\025_\361\305?333333\323?\347>\273\200\330T\272?\317. 6\225\206\334?D\177\'\253\345\215\321?\035\324A\035\324A\275?X|\305W|\305\307?9\367\331\005\304\246\322?z\024\256G\341z\304?\261\2514\344\334g\267?W\210\n\224\222\341\327?\000\000\000\000\000\000\000\000\222$I\222$I\302?\354Q\270\036\205\353\321?\035\324A\035\324A\275?\310\271\317. 6\325?\222$I\222$I\302?D\177\'\253\345\215\301?\222$I\222$I\322?\035\324A\035\324A\335?\000\000\000\000\000\000\000\000\222$I\222$I\342?\000\000\000\000\000\000\000\000\035\324A\035\324A\275?\035\324A\035\324A\275?.o\214`\242\277\323?\000\000\000\000\000\000\000\000X|\305W|\305\327?\231\231\231\231\231\231\351?\035\324A\035\324A\275?\016\247\217\177\344\231\326?\026_\361\025_\361\325?\000\000\000\000\000\000\000\000\035\324A\035\324A\315?\317. 6\225\206\334?\000\000\000\000\000\000\000\000\035\324A\035\324A\275?\333\266m\333\266m\333?\340\311jyc\004\323?D\177\'\253\345\215\301?P\007uP\007u\320?\000\000\000\000\000\000\000\000\231\231\231\231\231\231\331?\000\000\000\000\000\000\000\000\257~\255\315\003\231\257?\000\000\000\000\000\000\000\000\355\002bSi\310\351?\2741\202\211\376N\326?\231\231\231\231\231\231\351?\216T]\203}\271\202?\222$I\222$I\322?\000\000\000\000\000\000\000\000\222$I\222$I\302?\254\2267F0\321\337?\200\241\210\307\202\003\334?z\024\256G\341z\304?\000\000\000\000\000\000\000\000@l*\r9\367\331?\272I\014\002+\207\326?\000\000\000\000\000\000\000\000\202\211\376NV\313\313?\026_\361\025_\361\345?\222$I\222$I\342?\231\334\252(\237\240\321?\026_\361\025_\361\265?\000\000\000\000\000\000\000\000\003\3340K\275\253\317?\261\2514\344\334g\327?X|\305W|\305\327?\026_\361\025_\361\305?\231\231\231\231\231\231\311?\035\324A\035\324A\275?\333\266m\333\266m\333?\000\000\000\000\000\000\000\000\340\311jyc\004\263?\310\271\317. 6\325?\020X9\264\310v\336?\324A\035\324A\035\324?\202\211\376NV\313\313?\003\3340K\275\253\317?\000\000\000\000\000\000\000\000\231\231\231\231\231\231\351?\035\324A\035\324A\275?z\024\256G\341z\244?\374#\317\264BT\340?\270\036\205\353Q\270\276?L\364w\262Z\336\330?\361\025_\361\025_\341?\344\231V\210\n\224\322?\000\000\000\000\000\000\000\000:\250\203:\250\203\332?\333\266m\333\266m\333?X|\305W|\305\327?\026_\361\025_\361\325?\231\231\231\231\231\231\271?\347>\273\200\330T\272?\000\000\000\000\000\000\000\000\240\224\014\277\031\370\260?\261\2514\344\334g\267?\340\311jyc\004\323?\205\250@)\031~\343?\310\271\317. 6\325?\363\306\010&\372;\331?\035\324A\035\324A\255?\000\000\000\000\000\000\000\000\000\000\000\000\000\000\000\000L\364w\262Z\336\330?jyc\004\023\375\335?\224\325\362\306\010&\332?o\214`\242\277\223\325?P\007uP\007u\340?\261\2514\344\334g\247?\222$I\222$I\342?\035\324A\035\324A\315?\230\350\357d\265\274\341?\035\324A\035\324A\255?\201\330T\032r\356\343?\000\000\000\000\000\000\000\000X|\305W|\305\327?\n\327\243p=\n\327?D\177\'\253\345\215\321?\026_\361\025_\361\325?\333\266m\333\266m\333?\317. 6\225\206\314?\035\324A\035\324A\235?\026_\361\025_\361\305?\026_\361\025_\361\265?\026_\361\025_\361\305?\2524\344\334g\027\260?z\024\256G\341z\324?X|\305W|\305\327?\222$I\222$I\302?\035\324A\035\324A\315?\231\231\231\231\231\231\331?\333\266m\333\266m\333?>\204\264\205e/\332?\261\2514\344\334g\307?\231\231\231\231\231\231\351?\000\000\000\000\000\000\000\000\261\2514\344\334g\247?\231\231\231\231\231\231\331?\231\231\231\231\231\231\311?\000\000\000\000\000\000\000\000\261\2514\344\334g\247?\247LnU\224O\300?\261\2514\344\334g\247?\231\231\231\231\231\231\311?2?xoIO\243?z\024\256G\341z\304?\005\304\246\322\220s\317?\371\301{Kz\232\340?\305\216H\030Gg\275?\000\000\000\000\000\000\000\000\365\256~\255\315\003\271?\026_\361\025_\361\265?\231\231\231\231\231\231\271?z\024\256G\341z\344?\247\t]\306\216H\250?\026_\361\025_\361\265?\000\000\000\000\000\000\000\000L\364w\262Z\336\310?9\367\331\005\304\246\322?\000\000\000\000\000\000\000\000\000\000\000\000\000\000\000\000\000\000\000\000\000\000\000\000\000\000\000\000\000\000\000\000\2524\344\334g\027\260?\000\000\000\000\000\000\000\000\215\021L\364w\262\332?\000\000\000\000\000\000\000\000z\024\256G\341z\304?\202\211\376NV\313\313?z\024\256G\341z\304?a\331\213\346\304\335\276?\222$I\222$I\322?\035\324A\035\324A\255?\2524\344\334g\027\300?.o\214`\242\277\323?\207Y\352]\375Z\333?P\304c\301\001n\270?\000\000\000\000\000\000\000\000\222$I\222$I\342?\333\266m\333\266m\313?\026_\361\025_\361\265?\035\324A\035\324A\335?\026_\361\025_\361\305?\035\324A\035\324A\335?\000\000\000\000\000\000\000\000\333\266m\333\266m\333?\026_\361\025_\361\245?\324\376\013E<\026\334?\222$I\222$I\342?\261\2514\344\334g\207?\2524\344\334g\027\260?_\361\025_\361\025\337?5\344\334g\027\020\333?\035\324A\035\324A\255?\010\357-\351iB\267?\035\324A\035\324A\315?\222$I\222$I\302?\347>\273\200\330T\312?\310\271\317. 6\325?\340\311jyc\004\323?\026_\361\025_\361\265?7\017d~\360\336\302?P\007uP\007u\320?\000\000\000\000\000\000\000\000\000\000\000\000\000\000\000\000\000\000\000\000\000\000\000\000\000\000\000\000\000\000\000\000\367\331\005\304\246\322\320?.o\214`\242\277\343?\261\2514\344\334g\227?\222$I\222$I\262?z\024\256G\341z\264?\222$I\222$I\342?\370\212\257\370\212\257\330?\000\000\000\000\000\000\000\000D\177\'\253\345\215\321?9\367\331\005\304\246\322?\310\271\317. 6\305?\035\324A\035\324A\315?\272I\014\002+\207\306?\000\000\000\000\000\000\000\000i\310\271\317. \346?\021\217\005\007\270a\306?\310\271\317. 6\325?y,8\300\r\263\324?\270\036\205\353Q\270\316?X|\305W|\305\327?\324A\035\324A\035\324?\324A\035\324A\035\324?\354Q\270\036\205\353\341?\000\000\000\000\000\000\000\000\t\343\350\254S&\327?\245!\347>\273\200\330?\000\000\000\000\000\000\000\000P\007uP\007u\320?\222$I\222$I\342?X|\305W|\305\327?_\361\025_\361\025\357?y,8\300\r\263\324?\370\212\257\370\212\257\330?L\364w\262Z\336\270?\035\324A\035\324A\235?z\024\256G\341z\304?\202\211\376NV\313\313?\270\036\205\353Q\270\336?z\024\256G\341z\304?\022L\364w\262Z\336?\035\324A\035\324A\255?\222$I\222$I\302?\000\000\000\000\000\000\000\000\230\350\357d\265\274\341?\324A\035\324A\035\344?\267m\333\266m\333\326?\261\2514\344\334g\327?\222$I\222$I\322?\324A\035\324A\035\324?\247\t]\306\216H\270?P\007uP\007u\320?\2524\344\334g\027\320?\026_\361\025_\361\325?\222$I\222$I\322?P\007uP\007u\340?\"\347>\273\200\330\324?\000\000\000\000\000\000\000\000\324A\035\324A\035\324?\347>\273\200\330T\312?\2524\344\334g\027\300?\000\000\000\000\000\000\000\000\376NV\313\033#\330?\361\025_\361\025_\321?\231\231\231\231\231\231\271?\247\t]\306\216H\270?\261\2514\344\334g\347?\376NV\313\033#\310?z\024\256G\341z\304?\347>\273\200\330T\272?D\177\'\253\345\215\301?z\024\256G\341z\304?\347>\273\200\330T\272?\222$I\222$I\342?\310\271\317. 6\305?5\344\334g\027\020\313?\000\000\000\000\000\000\000\000\000\000\000\000\000\000\000\000D\177\'\253\345\215\321?D\177\'\253\345\215\241?\206\234\373\354\002b\323?\222$I\222$I\262?\202\211\376NV\313\313?\276\342+\276\342+\336?\310\271\317. 6\325?_4\'\356\366\034\307?\000\000\000\000\000\000\000\000\202\211\376NV\313\273?2?xoIO\243?\333\266m\333\266m\333?\347>\273\200\330T\332?z\024\256G\341z\304?\n\327\243p=\n\327?\000\000\000\000\000\000\000\000\324A\035\324A\035\324?\222$I\222$I\322?\222$I\222$I\322?\365\361\217<\323\n\301?\026_\361\025_\361\305?X|\305W|\305\347?\222$I\222$I\342?\222$I\222$I\302?\324A\035\324A\035\324?\026_\361\025_\361\345?\202\211\376NV\313\313?\347>\273\200\330T\272?\035\324A\035\324A\235?\000\000\000\000\000\000\000\000\267m\333\266m\333\346?\324A\035\324A\035\324?\000\000\000\000\000\000\000\000\026_\361\025_\361\325?\035\324A\035\324A\255?D\177\'\253\345\215\321?\317. 6\225\206\314?\000\000\000\000\000\000\000\000\035\324A\035\324A\255?\000\000\000\000\000\000\000\000\035\324A\035\324A\275?\231\231\231\231\231\231\331?\215\021L\364w\262\332?\000\000\000\000\000\000\000\000\324A\035\324A\035\324?\000\000\000\000\000\000\000\000\000\000\000\000\000\000\000\000\035\324A\035\324A\315?\205\250@)\031~\343?D\177\'\253\345\215\321?\000\000\000\000\000\000\000\000D\177\'\253\345\215\321?\026_\361\025_\361\265?\272I\014\002+\207\306?\035\324A\035\324A\275?\000\000\000\000\000\000\000\000P\007uP\007u\300?P\007uP\007u\320?\245!\347>\273\200\330?\000\000\000\000\000\000\000\000\026_\361\025_\361\265?_4\'\356\366\034\307?z\024\256G\341z\304?\347>\273\200\330T\312?\261\2514\344\334g\307?\222$I\222$I\342?\000\000\000\000\000\000\000\000\035\324A\035\324A\235?\324A\035\324A\035\344?\000\000\000\000\000\000\000\000\267m\333\266m\333\326?\231\231\231\231\231\231\311?\270\036\205\353Q\270\276?X|\305W|\305\327?\000\000\000\000\000\000\000\000:\250\203:\250\203\332?\035\324A\035\324A\315?z\024\256G\341z\304?\310\271\317. 6\325?\222$I\222$I\302?\n\327\243p=\n\327?\333\266m\333\266m\353?\035\324A\035\324A\235?\000\000\000\000\000\000\000\000D\213l\347\373\251\321?\310\271\317. 6\325?\310\271\317. 6\325?\035\324A\035\324A\335?_\361\025_\361\025\337?z\024\256G\341z\244?\035\324A\035\324A\315?\026_\361\025_\361\305?\361\025_\361\025_\321?\367\331\005\304\246\322\300?X|\305W|\305\327?\n\327\243p=\n\327?\261\2514\344\334g\327?\035\324A\035\324A\315?\231\231\231\231\231\231\311?\026_\361\025_\361\345?\347>\273\200\330T\272?L\364w\262Z\336\330?c\004\023\375\235\254\306?\222$I\222$I\322?\026_\361\025_\361\265?_4\'\356\366\034\307?\n\327\243p=\n\327?\247\t]\306\216H\270?\035\324A\035\324A\315?\231\231\231\231\231\231\331?\035\324A\035\324A\275?\244p=\n\327\243\340?\035\324A\035\324A\255?\035\324A\035\324A\275?\000\000\000\000\000\000\000\000\035\324A\035\324A\275?\035\324A\035\324A\275?\000\000\000\000\000\000\000\000\261\2514\344\334g\307?\333\266m\333\266m\353?X|\305W|\305\327?\344\231V\210\n\224\342?\324A\035\324A\035\344?\324A\035\324A\035\324?\000\000\000\000\000\000\000\000\231\231\231\231\231\231\271?\000\000\000\000\000\000\000\000\000\000\000\000\000\000\000\000\036\013\016p\303,\325?\000\000\000\000\000\000\000\000z\024\256G\341z\304?\222$I\222$I\302?\2741\202\211\376N\326?D\177\'\253\345\215\261?\231\231\231\231\231\231\331?\310\271\317. 6\325?D\177\'\253\345\215\321?\000\000\000\000\000\000\000\000\347>\273\200\330T\272?\231\231\231\231\231\231\331?\231\231\231\231\231\231\331?z\024\256G\341z\244?\3569.\246X\263\321?D\177\'\253\345\215\321?$I\222$I\222\344?\000\000\000\000\000\000\000\000\000\000\000\000\000\000\000\000"
      }
    }
  }
}
node {
  name: "Const_2"
  op: "Const"
  attr {
    key: "_output_shapes"
    value {
      list {
        shape {
          dim {
            size: 704
          }
        }
      }
    }
  }
  attr {
    key: "dtype"
    value {
      type: DT_DOUBLE
    }
  }
  attr {
    key: "value"
    value {
      tensor {
        dtype: DT_DOUBLE
        tensor_shape {
          dim {
            size: 704
          }
        }
        tensor_content: "\257\215X\227\036\363\327?}\016\251\t\306[\271?\001\241\344N\321\302\311?\241\344N\321\302\031\220?\331\347\220\232`\274\245?\271S\264p\006\204\262?\251\t\306[\331\347\240?\216X\227\036\363\367\312?\251\t\306[\331\347\260?\020J\356\024-\234\321?\3511\177\257\215X\267?\271S\264p\006\204\262?tHM0\336\312\316?\251\t\306[\331\347\300?\225}\016\251\t\306\273?\356\024-\234\001\241\324?\3511\177\257\215X\247?\301x+\373\034R\223?\000\000\000\000\000\000\320?\257\215X\227\036\363\357?!5\301x+\373\334?`\274\225}\016\251\341?=\346\357\265\021\353\322?\314\337k#\326\245\347?\241\344N\321\302\031\220?\020J\356\024-\234\321?\321\302\031\020J\356\264?E\013g@(\271\323?\016\251\t\306[\331\327?\031\020J\356\024-\334?-\234\001\241\344N\301?\000\000\000\000\000\000\360?\321\302\031\020J\356\264?tHM0\336\312\316?\031\020J\356\024-\334?=\346\357\265\021\353\322?\233`\274\225}\016\341?\225}\016\251\t\306\313?\361V\3669\244&\230?\267\262\317!5\301\310?\031\020J\356\024-\334?=\346\357\265\021\353\322?5\301x+\373\034\322?\031\020J\356\024-\314?\311\235\242\2053 \244?\356\024-\234\001\241\324?\3511\177\257\215X\267?!5\301x+\373\334?-\234\001\241\344N\321?Z8\003B\311\235\352?\030oe\237Cj\342?5\301x+\373\034\322?\022\353\322c\376^\333?\031\020J\356\024-\334?\031\020J\356\024-\254?\252\252\252\252\252\252\332?E\013g@(\271\323?\216X\227\036\363\367\332?\226}\016\251\t\306\343?J\356\024-\234\001\321?g@(\271S\264\340?\n\306[\331\347\220\312?\321\302\031\020J\356\354?UUUUUU\265?\031\020J\356\024-\274?\2063 \224\334)\312?\3669\244&\030o\325?3 \224\334)Z\310?\245\307\374\2756b\335?E\013g@(\271\303?\251\t\306[\331\347\320?\036\363\367\332\210u\331?\356\024-\234\001\241\324?J\356\024-\234\001\321??\207\324\004\343\255\354?\313>\207\324\004\343\335?\301x+\373\034R\243?\000\000\000\000\000\000\000\000\214\267\262\317!5\321?\252\252\252\252\252\252\332?\251\t\306[\331\347\300?\207\324\004\343\255\354\323?\027\316\200Pr\247\330?\241\344N\321\302\031\340?-\234\001\241\344N\321?E\013g@(\271\323?\376^\033\261.=\326?\3511\177\257\215X\247?\213\267\262\317!5\351?\321\302\031\020J\356\224?\332\210u\3511\177\337?\371{m\304\272\364\250?6b]z\314\337\353?\031\020J\356\024-\344?=\346\357\265\021\353\262?\306[\331\347\220\232\320?\263\317!5\301x\343?g@(\271S\264\340?@(\271S\264p\356?\241\344N\321\302\031\220?\024-\234\001\241\344\336?\001\241\344N\321\302\251?tHM0\336\312\316?E\013g@(\271\323? \224\334)Z8\343?\241\344N\321\302\031\340?\257\215X\227\036\363\357?+\373\034R\023\214\307?E\013g@(\271\323?\300x+\373\034R\353?=\346\357\265\021\353\302?\361V\3669\244&\230?\031\020J\356\024-\274?=\346\357\265\021\353\342?\031\020J\356\024-\334?\031\020J\356\024-\334?(\271S\264p\006\324?b]z\314\337k\323?\031\020J\356\024-\344?\214\267\262\317!5\321?\342\014\010%w\212\326?)Z8\003B\311\315?\347\220\232`\274\225\355?\2063 \224\334)\312?tHM0\336\312\346?\271S\264p\006\204\322?\337k#\326\245\307\354?#\326\245\307\374\275\326?\3669\244&\030o\325?tHM0\336\312\316?\304\272\364\230\277\327\356?\3669\244&\030o\325?\301x+\373\034R\203?2\177\257\215X\227\256?\023\214\267\262\317!\355?\034\261.=\346\357\305?\271S\264p\006\204\242?\001\241\344N\321\302\211?\242\2053 \224\334\331?\363\367\332\210u\351\321?\301x+\373\034R\303?=\346\357\265\021\353\322?\241\344N\321\302\031\260?HM0\336\312>\357?u\3511\177\257\215\270?\3669\244&\030o\325?\326\245\307\374\2756\352?\235\242\2053 \224\354?\334)Z8\003B\331?\223;E\013g@\330?J\356\024-\234\001\321?J\356\024-\234\001\321?\314\337k#\326\245\357?\332\210u\3511\177\337?\245\307\374\2756b\315?\001\241\344N\321\302\311?\031\020J\356\024-\334?\235\242\2053 \224\314?\342\014\010%w\212\246?\301x+\373\034R\323?=\346\357\265\021\353\322?3 \224\334)Z\310?\2063 \224\334)\312?\241\344N\321\302\031\340?M0\336\312>\207\304?\363\367\332\210u\351\321?g@(\271S\264\340?\022\353\322c\376^\333?\271S\264p\006\204\242?\n\306[\331\347\220\252? \224\334)Z8\353?\220\232`\274\225}\346?\256\354sHM0\316?\370\332\210u\3511\317?\024-\234\001\241\344\346?\220\232`\274\225}\346?i\202\361V\3669\324?I\356\024-\234\001\351?tHM0\336\312\316?\001\241\344N\321\302\351?\3669\244&\030o\325?\245\307\374\2756b\315?\251\t\306[\331\347\240?\321\302\031\020J\356\224?\n\306[\331\347\220\312?\2063 \224\334)\312?\007%w\212\026\316\350?\034R\023\214\267\262\357?}\016\251\t\306[\271?\347\220\232`\274\225\355?\347\220\232`\274\225\355?\3669\244&\030o\325?\306[\331\347\220\232\340?\241\344N\321\302\031\200?\216X\227\036\363\367\312?\225}\016\251\t\306\273?3 \224\334)Z\310?\000\000\000\000\000\000\340?\241\344N\321\302\031\220?\023\214\267\262\317!\305?\000\000\000\000\000\000\340?E\013g@(\271\303?\001\241\344N\321\302Y?=\346\357\265\021\353\302?\354sHM0\336\332?\013g@(\271S\304?\3669\244&\030o\325?\001\241\344N\321\302\311?*\373\034R\023\214\357?\000\000\000\000\000\000\360?J\356\024-\234\001\321?\354sHM0\336\332?\000\000\000\000\000\000\000\000%w\212\026\316\200\320?=\346\357\265\021\353\322?\031\020J\356\024-\334?\360\265\021\353\322c\316?\214\267\262\317!5\321?\271S\264p\006\204\322?z\314\337k#\326\325?\022\353\322c\376^\313?\016\251\t\306[\331\357?\022\353\322c\376^\333?\250h\341\014\010%\357?i\202\361V\3669\324?\031\020J\356\024-\334?2\177\257\215X\227\256?:\244&\030oe\257?\001\241\344N\321\302y?\022\353\322c\376^\313?r\247h\341\014\010\325?=\346\357\265\021\353\262?\2766b]z\314\277?G\254K\217\371{\335?\327F\254K\217\371\333?\007%w\212\026\316\350?\000\000\000\000\000\000\320?\363\367\332\210u\351\321?\343\255\354sHM\300?\223;E\013g@\330?\332\210u\3511\177\337?\331\347\220\232`\274\265?\2766b]z\314\277?\242\2053 \224\334\341?.=\346\357\265\021\353?2\177\257\215X\227\256?\2063 \224\334)\312?Y\227\036\363\367\332\330?6b]z\314\337\353?\371{m\304\272\364\250?\370\332\210u\3511\337?\334)Z8\003B\331?\235\242\2053 \224\274?\342\014\010%w\212\266?\031\020J\356\024-\334?\242\2053 \224\334\351?\001\241\344N\321\302\211?\256\354sHM0\346?\246\307\374\2756b\345?\321\302\031\020J\356\264?\223;E\013g@\330?\327F\254K\217\371\333?\000\000\000\000\000\000\360?\001\241\344N\321\302i?\251\t\306[\331\347\320?!5\301x+\373\254?=\346\357\265\021\353\322?\022\353\322c\376^\313?d\376^\033\261.\345?\027\316\200Pr\247\330?\331\347\220\232`\274\265?\220\232`\274\225}\346?\031\020J\356\024-\334?\261.=\346\357\265\301?\321\302\031\020J\356\224?\216X\227\036\363\367\312?\301x+\373\034R\223?\233`\274\225}\016\331?\376^\033\261.=\326?\207\324\004\343\255\354\303?\336\312>\207\324\004\343?\241\344N\321\302\031\300?}\016\251\t\306[\311?\331\347\220\232`\274\245?2\177\257\215X\227\276?E\013g@(\271\323?\334)Z8\003B\331?\001\241\344N\321\302i?e\237Cj\202\361\326?\363\367\332\210u\351\321?\000\000\000\000\000\000\000\000\253K\217\371{m\324?\3659\244&\030o\355?\356\024-\234\001\241\324?E\013g@(\271\323?+\373\034R\023\214\307?h\341\014\010%w\332?\322c\376^\033\261\336?\000\000\000\000\000\000\000\000=\346\357\265\021\353\262?\024-\234\001\241\344\346??\207\324\004\343\255\354?\235\242\2053 \224\274?\242\2053 \224\334\331?\241\344N\321\302\031\350?J\356\024-\234\001\321?E\013g@(\271\303?\3511\177\257\215X\247?:\244&\030oe\277?\343\255\354sHM\340?\2766b]z\314\337?\247h\341\014\010%\327?2\177\257\215X\227\256?\337k#\326\245\307\354?\001\241\344N\321\302\211?\326\245\307\374\2756\342?\3669\244&\030o\345?m\304\272\364\230\277\267?\022\353\322c\376^\233?\332\210u\3511\177\337?\207\324\004\343\255\354\303?c\376^\033\261.\355?\356\024-\234\001\241\324?J\356\024-\234\001\321?\001\241\344N\321\302i?\216X\227\036\363\367\312?^z\314\337k#\326?\253K\217\371{m\324?2\177\257\215X\227\236?\177\257\215X\227\036\343?|m\304\272\364\230\317?E\013g@(\271\323?\342\014\010%w\212\266? \224\334)Z8\343?=\346\357\265\021\353\322?)Z8\003B\311\315?\261.=\346\357\265\261?\376^\033\261.=\326?HM0\336\312>\357?^z\314\337k#\266?\3511\177\257\215X\267?\271S\264p\006\204\322?\001\241\344N\321\302\311?z\314\337k#\326\355?\241\344N\321\302\031\340?\022\353\322c\376^\333?\301x+\373\034R\263?M0\336\312>\207\304?\225}\016\251\t\306\273?\241\344N\321\302\031\260?\242\2053 \224\334\341?\223;E\013g@\330?\n\306[\331\347\220\312?*\373\034R\023\214\357?d\376^\033\261.\345?\274\225}\016\251\t\326?\354sHM0\336\332?\023\214\267\262\317!\305?\001\241\344N\321\302\211?\370\332\210u\3511\337?\220\232`\274\225}\346?\001\241\344N\321\302\311?\332\210u\3511\177\337?\247h\341\014\010%\327?\216X\227\036\363\367\272?\2766b]z\314\277?!5\301x+\373\274?2\177\257\215X\227\256?\321\302\031\020J\356\304?\225}\016\251\t\306\313?\001\241\344N\321\302y?\227\036\363\367\332\210\355?\331\347\220\232`\274\245?<E\013g@(\341?\031\020J\356\024-\274?\343\255\354sHM\340?*\373\034R\023\214\357?\235\242\2053 \224\314?\3659\244&\030o\355?\301x+\373\034R\203?\271S\264p\006\204\262?\031\020J\356\024-\314?\256\354sHM0\276?tHM0\336\312\316?\223;E\013g@\330?\023\214\267\262\317!\305?\031\020J\356\024-\334?tHM0\336\312\356?m\304\272\364\230\277\267?\214\267\262\317!5\321?\241\344N\321\302\031\220?E\013g@(\271\323?\031\020J\356\024-\334?z\314\337k#\326\355?\001\241\344N\321\302\211?\003B\311\235\242\205\323?|m\304\272\364\230\317?\001\241\344N\321\302\211?\n\306[\331\347\220\252?=\346\357\265\021\353\262?\322c\376^\033\261\336?\251\t\306[\331\347\260?2\177\257\215X\227\256?\245\307\374\2756b\315?\301x+\373\034R\203?\301x+\373\034R\263?\034\261.=\346\357\305?\342\014\010%w\212\206?\267\262\317!5\301\340?\343\255\354sHM\300?\344N\321\302\031\020\342?\301x+\373\034R\303?%w\212\026\316\200\300?\225}\016\251\t\306\273?2\177\257\215X\227\346?\031\020J\356\024-\334?\331\347\220\232`\274\265?\247h\341\014\010%\347?\363\367\332\210u\351\321?\363\367\332\210u\351\321?\321\302\031\020J\356\304?l#\326\245\307\374\345?\023\214\267\262\317!\355?\344N\321\302\031\020\342?\373\034R\023\214\267\322?\301x+\373\034R\223?!5\301x+\373\334?\261.=\346\357\265\261?\216X\227\036\363\367\272?\016\251\t\306[\331\357?\331\347\220\232`\274\265?z\314\337k#\326\355?\251\t\306[\331\347\320?\216X\227\036\363\367\332?\247h\341\014\010%\327?\031\020J\356\024-\274?#\326\245\307\374\275\306?u\3511\177\257\215\270?\256\354sHM0\276?h\341\014\010%w\332?5\301x+\373\034\302?m\304\272\364\230\277\327?5\301x+\373\034\322?\2053 \224\334)\342?m\304\272\364\230\277\267?\n\306[\331\347\220\252?}\016\251\t\306[\311?\360\265\021\353\322c\316?\234\001\241\344N\321\342?=\346\357\265\021\353\342?\235\242\2053 \224\274?\022\353\322c\376^\233?\235\242\2053 \224\274?\356\024-\234\001\241\324?\000\000\000\000\000\000\320?\3669\244&\030o\325?\230\277\327F\254K\337?\227\036\363\367\332\210\345?\251\t\306[\331\347\260?=\346\357\265\021\353\302?.=\346\357\265\021\343?\001\241\344N\321\302\211?\220\232`\274\225}\336?\271S\264p\006\204\302?\027\316\200Pr\247\330?\257\215X\227\036\363\327?=\346\357\265\021\353\322?8\003B\311\235\242\345?\332\210u\3511\177\337?\211u\3511\177\257\335?\214\267\262\317!5\321?\022\353\322c\376^\333?5\301x+\373\034\322?\n\306[\331\347\220\252?[\331\347\220\232`\344?\256\354sHM0\276?\234\001\241\344N\321\322?m\304\272\364\230\277\267?}\016\251\t\306[\271?\331\347\220\232`\274\245?\031\020J\356\024-\334?!5\301x+\373\274?\311\235\242\2053 \244?\2063 \224\334)\272?\301x+\373\034R\203?\241\344N\321\302\031\300?\271S\264p\006\204\262?\2063 \224\334)\272?=\346\357\265\021\353\322?\301x+\373\034R\203?!5\301x+\373\314?\334)Z8\003B\331?M0\336\312>\207\264?J\356\024-\234\001\321?)Z8\003B\311\315?2\177\257\215X\227\346?\031\020J\356\024-\334?2\177\257\215X\227\256?=\346\357\265\021\353\302?\216X\227\036\363\367\272?\003B\311\235\242\205\323?\001\241\344N\321\302y?\031\020J\356\024-\334?m\304\272\364\230\277\267?\2063 \224\334)\272?\376^\033\261.=\326?\235\242\2053 \224\274?w\212\026\316\200P\322?\3511\177\257\215X\247?\207\324\004\343\255\354\323?L\217\371{m\304\332?\2766b]z\314\277?\266\021\353\322c\376\276?\223;E\013g@\330?\301x+\373\034R\323?=\346\357\265\021\353\322?\031\020J\356\024-\334?\241\344N\321\302\031\220?\321\302\031\020J\356\264?\370\332\210u\3511\317?\356\024-\234\001\241\324?\245\307\374\2756b\315?\000\000\000\000\000\000\000\000\001\241\344N\321\302i?2\177\257\215X\227\236?\3511\177\257\215X\247?\251\t\306[\331\347\300?\251\t\306[\331\347\260?!5\301x+\373\274?\261.=\346\357\265\261?3 \224\334)Z\310?\001\241\344N\321\302\211?\034\261.=\346\357\305?\326\245\307\374\2756\352?T\264p\006\204\222\333?\3511\177\257\215X\267?J\356\024-\234\001\341?\022\353\322c\376^\313?z\314\337k#\326\355?\2063 \224\334)\312?\343\255\354sHM\340?\235\242\2053 \224\274?\241\344N\321\302\031\260?\261.=\346\357\265\261?\321\302\031\020J\356\224?\007%w\212\026\316\350?\257\215X\227\036\363\307?T\264p\006\204\222\333?\240Cj\202\361V\306?m\304\272\364\230\277\267?\343\255\354sHM\320?;E\013g@(\311?\031\020J\356\024-\254?\245\307\374\2756b\335?=\346\357\265\021\353\322?=\346\357\265\021\353\322?\261.=\346\357\265\261?\031\020J\356\024-\334?\000\000\000\000\000\000\360?!5\301x+\373\274?\371{m\304\272\364\250?\261.=\346\357\265\301?\271S\264p\006\204\262?\001\241\344N\321\302\311?\311\235\242\2053 \264?}\016\251\t\306[\271?\203\222;E\013g\350?\311\235\242\2053 \264?\240Cj\202\361V\306?\271S\264p\006\204\322?\245\307\374\2756b\315?\3659\244&\030o\355?k#\326\245\307\374\355?\211u\3511\177\257\335?\226}\016\251\t\306\343?2\177\257\215X\227\356?\031\020J\356\024-\254?\031\020J\356\024-\334?\256\354sHM0\316?\301x+\373\034R\323?\223;E\013g@\330?5\301x+\373\034\322?\2063 \224\334)\272?=\346\357\265\021\353\322?M0\336\312>\207\304?)Z8\003B\311\315?\301x+\373\034R\343?\375\2756b]z\354?\370\332\210u\3511\317?\235\242\2053 \224\274?M0\336\312>\207\344?\301x+\373\034R\203?\022\353\322c\376^\313?\254K\217\371{m\354?*\373\034R\023\214\357?~\016\251\t\306[\341?\347\220\232`\274\225\355?\256\354sHM0\316?\301x+\373\034R\323?\370\332\210u\3511\337?2\177\257\215X\227\256?\031\020J\356\024-\334?\023\214\267\262\317!\355?\3669\244&\030o\325?\261.=\346\357\265\261?\321\302\031\020J\356\264?\311\235\242\2053 \264?\257\215X\227\036\363\327?\3511\177\257\215X\267?\320!5\301x+\333?\311\235\242\2053 \264?B\311\235\242\2053\320?\010%w\212\026\316\320?\001\241\344N\321\302Y?\334)Z8\003B\331?\211u\3511\177\257\335?\371{m\304\272\364\340?u\3511\177\257\215\310?\311\235\242\2053 \264?=\346\357\265\021\353\322?\3511\177\257\215X\267?\370\332\210u\3511\317?\031\020J\356\024-\254?\024-\234\001\241\344\346?+\373\034R\023\214\307?=\346\357\265\021\353\322?\000\000\000\000\000\000\360?\361V\3669\244&\230?\257\215X\227\036\363\307?\270S\264p\006\204\352?\245\307\374\2756b\335?z\314\337k#\326\355?\n\306[\331\347\220\252?!5\301x+\373\314?\261.=\346\357\265\321?\010%w\212\026\316\320?E\013g@(\271\323?\353\322c\376^\033\351?\264p\006\204\222;\325?\257\215X\227\036\363\307?\356\024-\234\001\241\324?\n\306[\331\347\220\252?T\264p\006\204\222\333?\314\337k#\326\245\357?\376^\033\261.=\326?E\013g@(\271\303?=\346\357\265\021\353\322?\233`\274\225}\016\331?\306[\331\347\220\232\340?\001\241\344N\321\302Y?!5\301x+\373\274?\022\353\322c\376^\233?tHM0\336\312\316?\001\241\344N\321\302y?\245\307\374\2756b\315?\301x+\373\034R\223?T\264p\006\204\222\333?+\373\034R\023\214\307?\257\215X\227\036\363\307?u\3511\177\257\215\270?\370\332\210u\3511\337?\n\306[\331\347\220\252?\3511\177\257\215X\267?\370\332\210u\3511\317?}\016\251\t\306[\271?\235\242\2053 \224\314?\217\371{m\304\272\354?\370\332\210u\3511\317?\257\215X\227\036\363\307?\261.=\346\357\265\261?\216X\227\036\363\367\332?\250h\341\014\010%\357?\240Cj\202\361V\326?\204\222;E\013g\320?\371{m\304\272\364\340?Y\227\036\363\367\332\330?V\3669\244&\030\337?=\346\357\265\021\353\322?\271S\264p\006\204\242?5\301x+\373\034\322?\256\354sHM0\316?\356\024-\234\001\241\324?!5\301x+\373\254?#\326\245\307\374\275\326?\225}\016\251\t\306\273?\031\020J\356\024-\344?\225}\016\251\t\306\273?\203\222;E\013g\350?\244&\030oe\237\323?\363\367\332\210u\351\351?\204\222;E\013g\320?\3669\244&\030o\325?\235\242\2053 \224\334?\000\000\000\000\000\000\320?8\003B\311\235\242\345?-\234\001\241\344N\301?HM0\336\312>\357?\3511\177\257\215X\267?\364\230\277\327F\254\353?\024-\234\001\241\344\346?\334)Z8\003B\331?\241\344N\321\302\031\200?-\234\001\241\344N\321?\231\277\327F\254K\347?"
      }
    }
  }
}
node {
  name: "Const_3"
  op: "Const"
  attr {
    key: "_output_shapes"
    value {
      list {
        shape {
          dim {
            size: 704
          }
        }
      }
    }
  }
  attr {
    key: "dtype"
    value {
      type: DT_DOUBLE
    }
  }
  attr {
    key: "value"
    value {
      tensor {
        dtype: DT_DOUBLE
        tensor_shape {
          dim {
            size: 704
          }
        }
        tensor_content: "\340t\375#\251&\320?g-\327\264\032\006\240?\353<\025\255\373\211\277?Sc\017\263\200|\321?\367\375O\207\270\331\340?\277^\203\343_f\227?a\324\302\324c;\301?\212\300\016\374*\206\345?\362\244;\247\001\017\262?\026\014\225\\H\363\343?\276\006\307\277\314.\340?\277^\203\343_f\227?\200\016\346;\275\360\327?\316\3176\005C%\307?gY\265F\344\241\343?\245;\247\001\017\022\272?B\343IwN\003\236?\000\026\357\310\344\315\241?\354\tZl\234\332\335?<2ys\004\001\330?\240W\033\275e`\322?\277^\203\343_f\307?{\202\026\033\247v\327?\312\233#\010\300\342\315?e\223M6\331d\323?\257SFC;\006\313?\245\260/\235\034+\261??$\277\025\331\331\333?\203\000,\336\221\311\313?%vk\317\225\236\325?y\350\214\234e\325\272?\250\242u?\361\003\325?YG\233\367).\331?I<^W\005\316\314?n6d\334\367?\315?QT\375\2301\302\315?s7\274\230\033\323\324?\307\334\230\246J\271\273?!\352\233\256\177$\325?ni\037\035W\357\336?\363q\200f\242_\340?\232\376\006\335\256\225\303?\223\013i~\266)\330?\\{\256\364\254p\302?\\\006&Y\237W\273?\t\271\005o\003\251\313?\353<\025\255\373\211\257?d\371\303\267\227\303\306?\027\005\270\255\262\337\265?\254a\000\241f-\327?\326\273\367\264\245}\344?\270\340m u\023\303?B\343IwN\003\316?%\001\3433\210\205\316?x\303\213\2711M\305?\274\367\264\245}t\334?\310v\"%\214Z\330?-i\t.\216\n\301?\031\237A,\364\200\342?5\264c\260\031\256\323?%vk\317\225\236\305?\256\310\316\336H\037\342?k\252\224\273\341\305\334?\363/\263\013\364\365\232?\023\321\244\260/\235\314?\023F-L=\266\323?\266\321[\006&Y\317?1\365\330N\244\204\321?\321\003J\002\306g\340?\321\216\301f\270N\311?M\n\373\322\311\261\322?\0227\0332\356\373\317?EJ\030\2650\365\330?\262\207Y@\276H\304?\005\242\276\351\372G\342?\203u\264y\237\342\302?\305\267\227\303\0261\306?\023\321\244\260/\235\274?\214Z\230zl\'\322?\305\204\334\202\267\201\324?\010\037|\360\301\007\277?\321\301|\247\027\376\352?\325\356\262\365\004-\346?3\032\3321\330\014\347?\027\005\270\255\262\337\265?4r\226UkD\316?0\263\013\364\365\032\274?\016\355\030l\206\353\304?\230\357\364\302_\333\317?\021\254\243\315\373\024\307?\334\024\014\225\\H\343?+\317\177\257Li\304?\314\2525\"\017\235\321?$}H~+\262\343?.\301\305Q!B\330?\263T\236\377^\231\322?A\276H\224\032{\330?\232\376\006\335\256\225\343?Z@\276H\224\032\353?o\253\354w\005Yt?<\323\337\240\333\265\342?\024\340\266\312~W\300?n\177\016\346;\275\340?4r\226UkD\316?\326ML\310-x\333?\323\263\302I\354\326\336?\377O\207\270\331\220\341?\035+\021M\n\373\322?7\014 \324\254\345\332?\351\270z\367\236\266\344?M\225r7\274\230\313?\001\241f-\327\264\332?\000\026\357\310\344\315\241??$\277\025\331\331\333?\n.\216\n\021\302\342?n6d\334\367?\315?\r\301:\332\274O\341?[l\234\332]\266\316?\273\237\370\201\352<\325?\325\217\031#\334\341\320?\233\211~A\241|\274?\226\312\363\337+S\332?\031l\206\353\224\321\340?\035\351C\362[\221\335?I<^W\005\316\314?;e4\264c\260\311?\221\346g\233\202\241\342?\213\030\313\037\276\275\274?\000I\252\tD}\323?\322\374lS0T\342?\000I\252\tD}\323?v\201\276^\203\343\337?\240W\033\275e`\342?E}\323\365\217\244\332?~\351\344X\211h\322?\207\001\204\232\265\\\323?U\210\020\226\264\004\267?\3433\210\205\036P\302?\024\340\266\312~W\300?D\362[\221\235\275\321?g\270N\031\r\355\270?\276\006\307\277\314.\340?\"BX\322\022\\\274?N\310-x\033H\335?\302\035\016E\325\217\271?\021\254\243\315\373\024\307?VUUUUU\325?M\225r7\274\230\333?\346\3064U\312\335\340?\303\352R\004v\340\327?>\314\002\362E\242\324?\254.E`\007~\265?h&\372\005\205\362\341?\300+\310\242\000\267\325?\332\033\351C\362[\321?\366c\306\010w8\304?.\216\n\021\302\222\306?U\210\020\226\264\004\307?\233\211~A\241|\214?\036\370U\014\253K\301?\010\037|\360\301\007\317?\204\315p\2352\032\332?\312\233#\010\300\342\335?\256\310\316\336H\037\322?\371\"Qj\354a\306?\353\261\235H\t\243\266?\232\376\006\335\256\225\343?B\343IwN\003\316?\374\274\332\350-\003\323?\"BX\322\022\\\274?\225\004\214\317 \026\352?\336e\353\tZl\314?\312\020\254\243\315\373\324?\234\230\220[\3606\300?\301\203\204\306\223\356\314?\336e\353\tZl\314?\253\224\273\341\305\334\310?C\026\005\270\255\262\337?\344\213D\251\261\207\331?X\274#\2237G\320?6N\355.[O\320?\325\302\324c;\221\262?\214Z\230zl\'\322?\241|\034\240\231\350\267?\3433\210\205\036P\342?JKpqT\210\260?\266\321[\006&Y\317?%\001\3433\210\205\336?\325\302\324c;\221\262?Go\031\230d}\356? \035W\357\336\323\326?\332\246`\250\344B\312?\367\375O\207\270\331\320?\361\253\030V\227\"\340?pEv\366F\372\320??\231G\261\346\362\262?\204\315p\2352\032\332?\215\'\3359\rx\320?\334@\352&&\344\306?f\036\305\232\313K\314?pEv\366F\372\340?\321\216\301f\270N\311?0(\224\217\0034\263?M\n\373\322\311\261\302?pEv\366F\372\300?Go\031\230d}\336?kw\331z\202\026\273?\233\211~A\241|\314?\346\371\357\225)\215\342?\366c\306\010w8\324?\254.E`\007~\265?\2250ja\352\261\315?\374\024\227\014\301:\332?\347\362\022\347\223y\324?\262\207Y@\276H\324?\270k\345\204g\372\313?=\377\2752\245Q\306?1\365\330N\244\204\321?\340\377t\210\233\r\311?\3145\255\206\001\204\312?\353\261\235H\t\243\306?rjw\331z\202\326?\364\311<\2125\227\327?5\264c\260\031\256\323?\230d}^m\364\306?T\356\206\027sc\332?\251o\272\376\221T\223?E\277\240P>\016\320?\'\233l\262\311&\333?\036\370U\014\253K\261? \035W\357\336\323\306?\035+\021M\n\373\322?\265y\237\342\222!\330?\354\326\236+=+\314?\351\214\234e\325\032\321?r\013\336\006R7\341?\366c\306\010w8\264?\032\304B\017(\t\310?\33720\311\372\274\332?\037P\0220>\203\330?.\301\305Q!B\330?\001\241f-\327\264\312?\265y\237\342\222!\330?.\216\n\021\302\222\306?\351\214\234e\325\032\321?4r\226UkD\276?n6d\334\367?\275?\002;\360\253\030V\307?\314\2525\"\017\235\321?\032\304B\017(\t\330?\223\013i~\266)\330?z*Z\367\023?\320?\203B\3718@3\321?\214\215S\273\313\326\263?\245\260/\235\034+\341?\024\340\266\312~W\320?\321\003J\002\306g\300?t\217x\274\256\n\314?\257SFC;\006\313?\020\022\032O\272s\232?>\2125\227\2278\317?\240W\033\275e`\322?\366c\306\010w8\324?H\261\346\362\022\347\343?4\347\036\361x]\265?\273\237\370\201\352<\345?\027\005\270\255\262\337\325?\277^\203\343_f\327?\275\304\371d\036\305\312?\374\211\037\250\316S\321?rjw\331z\202\306?\220\327U\2013\347\336?n6d\334\367?\315?M\225r7\274\230\333?\266\321[\006&Y\317?\273\237\370\201\352<\305?\360\n\262(\300m\305?\265y\237\342\222!\330?\230\357\364\302_\333\317?\215\'\3359\rx\300?\342:e4\264c\340?o\253\354w\005Y\244?\241|\034\240\231\350\307?\257\225\023\236\351o\320?\017\207\242\352\307\214\301?v)\002;\360\253\330?\230\357\364\302_\333\317?\027\220/\022\245\306\276?\316\3176\005C%\327?\304B\017(\t\030\337?\000\000\000\000\000\000\000\000\204;\034\212\252\037\343?\263T\236\377^\231\322?\367\210\307\353\252\300\311?YG\233\367).\311?0[O\320b\343\324?\177\266)\030*\271\300?\317\'\363(\326\\\336?\222\022F-L=\346?s\365\356=mi\277?\0342\356\373\237\016\341?\263T\236\377^\231\342?\362\244;\247\001\017\242?0[O\320b\343\324?\322/(\224\217\003\344?\254.E`\007~\265??\231G\261\346\362\302?\020\337^\016[\304\330?\374\274\332\350-\003\323?y]\0258s\356\321?\310v\"%\214Z\330?n6d\334\367?\275?{\202\026\033\247v\327?j\354a\026\220/\322?`\305\260\272\024\201\255?U\210\020\226\264\004\307?\262\022\321\244\260/\355?\2321\302\035\016E\325?a3\\\247\214\206\346?\016\355\030l\206\353\304?\332N\244\204Q\013\323?\\{\256\364\254p\322?\301\203\204\306\223\356\314?[\202\213\243B\204\340?\204\232\265\\\323j\330?\226\312\363\337+S\312?\270k\345\204g\372\273?\\9\341\231\376\006\335?\027\322\374lS0\324?\223\013i~\266)\310?\013\373\322\311\261\022\321?\305\267\227\303\0261\346?;\332\274Oq\311\340?\326ML\310-x\333?\254.E`\007~\305?\306Q!BX\322\262?\360\225)\215\262T\316?:\230\357\364\302_\333?\007\233\341:e4\344?.\216\n\021\302\222\306?-\364\200\222\200\361\311?\204\232\265\\\323j\310?\373GRM \352\333?\244\343\352\335{\332\322?\023\321\244\260/\235\314?kw\331z\202\026\333?\226\375\256 \213\002\334?\330\201_\305\260\272\324?W\255\021y\350\214\314?\000\007\335\256\225\023\316?.\216\n\021\302\222\306?\225\004\214\317 \026\352?BX\322\022\\\034\305?\346%\316\'\363(\326?A\222j\002Q\337\344?\240\342\222!XG\313?\336\230\246J\271\033\336?L\021\330\201_\305\340?\321\003J\002\306g\320?\023F-L=\266\303?\221\346g\233\202\241\342?\373GRM \352\333?\301\266?\007\363\235\336?T\356\206\027sc\332?\027\220/\022\245\306\276?\215\'\3359\rx\300?\3433\210\205\036P\242?\232\376\006\335\256\225\263?;\332\274Oq\311\300?\016\355\030l\206\353\324?N\327?\222j\002\341?\346\371\357\225)\215\342?B\213\215S\273\313\326?t\217x\274\256\n\314?\000\026\357\310\344\315\241?`:9V\"\232\304?\246\334\r/\346\306\344?\341$vk\317\225\336?\034^\314\215i\252\344??\231G\261\346\362\322?\000\007\335\256\225\023\336?\270k\345\204g\372\273?\372\303\267\227\303\026\341?\356\030l\206\353\224\321?\375\202B\3718@\343?\245;\247\001\017\022\272?|O[\332G\307\345?\"\267\340m u\323?P\374@u\236\212\326?(h\261qjw\331?\202f\242_P(\317?\321\216\301f\270N\331?\363q\200f\242_\340?\034\034\3772\273@\337?`\305\260\272\024\201\235?s\365\356=mi\317?\336\332s\245g\205\303?\232\376\006\335\256\225\303?j\354a\026\220/\262?\313\335\360bnL\323?\317\'\363(\326\\\336?\325\302\324c;\221\302??$\277\025\331\331\313?7\014 \324\254\345\332?\032\304B\017(\t\330?\014S\217\355DJ\330?\240\342\222!XG\313?\nZl\234\332]\346?\377{eJ\243,\305?\347\362\022\347\223y\264?\0105k\271\246\325\340?\"BX\322\022\\\314?Q\311\2054?\333\244??\231G\261\346\362\262?4\347\036\361x]\325?\334@\352&&\344\306?;e4\264c\260\311?\177\266)\030*\271\320?\366\356=mi\037\315?\251o\272\376\221T\323?#Qj\354a\026\340?\262\207Y@\276H\324?~\351\344X\211h\322?\367\375O\207\270\331\320?4\347\036\361x]\305?)5\3660\013\310\267?\371\"Qj\354a\346?\340t\375#\251&\260?M\225r7\274\230\273?[\256i5\014 \324?\340\377t\210\233\r\311? \276\275\034\266\210\341?4\347\036\361x]\265?-i\t.\216\n\301?n6d\334\367?\275?\000\026\357\310\344\315\241?\"BX\322\022\\\274?\010\037|\360\301\007\237?\241\257\327\340\370\227\331?\177\266)\030*\271\300?8\246\251R\356\206\307?\232\376\006\335\256\225\323?n6d\334\367?\315?j\354a\026\220/\322?\"\204%-\301\305\321?\264!\343\276\377\351\260?\217L\336\034A\000\306?\261\272\024\201\035\370\325?\337\247\270d\010\326\341??f\214p\207C\321?\362\244;\247\001\017\242?\317=\342\361\272*\340?\"BX\322\022\\\314?.\216\n\021\302\222\306?Go\031\230d}\336?6N\355.[O\320?\231\005\344\213D\251\341?\344\276\377\351\0207\313?YG\233\367).\331?\254.E`\007~\265?\'\020\365M\327?\342?g-\327\264\032\006\340?\243\026\246\036\333\211\304?;e4\264c\260\271?\247v\227\255\'h\341?\304B\017(\t\030\337?\3433\210\205\036P\302?+\234\304n\355\271\322?\311Cg\344,\253\326?\374\211\037\250\316S\321?\325\217\031#\334\341\320?kw\331z\202\026\333?\201\333*\373]A\326?G\027]t\321E\267?d\306\010w8\024\325?\241$`|\006\261\320?)5\3660\013\310\267?B\343IwN\003\236?g-\327\264\032\006\240?\326ML\310-x\213?8\246\251R\356\206\327?\3433\210\205\036P\342?JKpqT\210\240?\223\013i~\266)\270?\325\302\324c;\221\262?\245\260/\235\034+\341?\272\322\263\302I\354\326?JKpqT\210\240?\273\237\370\201\352<\325?\321\003J\002\306g\320?M\225r7\274\230\313?\372\357\225)\215\262\324? \035W\357\336\323\306?\254.E`\007~\265?G\344\2413r\226\345?<2ys\004\001\330?\\\006&Y\237W\333?0(\224\217\0034\323?\024\340\266\312~W\320?B\213\215S\273\313\326?\261\355\317\301|\247\327?\314\2525\"\017\235\321?\301\370\014b\241\007\344?B\343IwN\003\236?\305\267\227\303\0261\326?D\260\2166\357S\334?\362\244;\247\001\017\242?}\034\240\231\350\027\324?\003\251\233\230\220[\340?\363/\263\013\364\365\332?\034\034\3772\273@\357?\305\204\334\202\267\201\324?\241|\034\240\231\350\327?b_:9V\"\312?\027\220/\022\245\306\276?QT\375\2301\302\315?\312\020\254\243\315\373\324?\257SFC;\006\333?BX\322\022\\\034\305?\330?\222j\002Q\337?e\223M6\331d\303?YG\233\367).\311?\000\000\000\000\000\000\000\000\220\327U\2013\347\336?\021M\n\373\322\311\341?\225\245\362\374\367\312\324?U\210\020\226\264\004\327?a\324\302\324c;\321?\317i\300\203\204\306\323?\001\241f-\327\264\272?\214Z\230zl\'\322?\233\211~A\241|\314?P\374@u\236\212\326?\213au)\002;\340?ox17\246\251\342?\005\325y*Z\367\323?\254.E`\007~\305?[\341$vk\317\325?\022\004`\361\216L\336?\201\333*\373]A\306?`:9V\"\232\304?h\205\223\330\255=\327?\363q\200f\242_\320??$\277\025\331\331\273?d\371\303\267\227\303\266?\334\237\203\371N/\354?W\255\021y\350\214\314?\314\2525\"\017\235\321?\031\237A,\364\200\302?\374\274\332\350-\003\303?0\263\013\364\365\032\314?e\223M6\331d\303?\236^\370k\373s\340?\031\237A,\364\200\322?D\362[\221\235\275\321?\241|\034\240\231\350\267?\371\"Qj\354a\226?\223\013i~\266)\330?\010\224\004\214\317 \326?s\004\001X\274#\323?\214\215S\273\313\326\263?QT\375\2301\302\315?\351J\317\n\'\261\333?rjw\331z\202\326?G\027]t\321E\307?g-\327\264\032\006\240?\316\234{\304\343u\325?`\305\260\272\024\201\255?:\230\357\364\302_\333?\213\030\313\037\276\275\334?kw\331z\202\026\313?\272\246\3250\200P\343??\231G\261\346\362\322?WzV8\211\335\332?\000\324!n6d\334?\314\2525\"\017\235\341?-i\t.\216\n\301?\\{\256\364\254p\322?3\032\3321\330\014\347??\231G\261\346\362\342?>\2125\227\2278\317?\212\363\311<\2125\327?l\345\204g\372\033\344?\362\244;\247\001\017\322?y]\0258s\356\301?YG\233\367).\271?\204\232\265\\\323j\310?\005`\361\216L\336\354?\327\264\032\006\020j\326?\362\244;\247\001\017\242?g-\327\264\032\006\340?\363/\263\013\364\365\252?\232\376\006\335\256\225\323?\317\'\363(\326\\\336?&C\260\2166\357\323?f\036\305\232\313K\314?M\n\373\322\311\261\322?\201\333*\373]A\306?\"BX\322\022\\\334?JKpqT\210\340?\251o\272\376\221T\223?T\356\206\027sc\332?~\351\344X\211h\322?kw\331z\202\026\273?\252\3721c\204;\314?\"\204%-\301\305\341?\367\375O\207\270\331\320?4r\226UkD\276?\351\214\234e\325\032\321?\001\241f-\327\264\312?d\371\303\267\227\303\306?\230d}^m\364\306?\273\237\370\201\352<\265?\213\030\313\037\276\275\274?_m\364\226\201I\326?}\332\322>:\256\336?\360\n\262(\300m\305?\036\370U\014\253K\301?G\027]t\321E\307?QT\375\2301\302\315?\210Y@\276H\224\312?xN\003\036$4\316?\236^\370k\373s\340?\301\203\204\306\223\356\314?\273\237\370\201\352<\265?\347\362\022\347\223y\344?\366c\306\010w8\324?o\253\354w\005Y\324?\017x\220\320x\322\315?\235\360L\177\203n\327?\206\277\266?\007\363\335?\244\343\352\335{\332\322?\327\347\325Fo\031\330?\036\370U\014\253K\321?}\247\027\376\332\376\314?K\243,\225\347\277\327?\"BX\322\022\\\314?h&\372\005\205\362\341?\364\365\032\034\3772\353?\254.E`\007~\265?\245;\247\001\017\022\272?\321\003J\002\306g\320?\'\233l\262\311&\333?\037\361x]\0258\343?\213au)\002;\340?\274*p\346\334#\336?\321\003J\002\306g\300?>\314\002\362E\242\324?\301\370\014b\241\007\324?4r\226UkD\316?0(\224\217\0034\303?\335\r/\346\3064\325?\211&\205}\351\344\330?\347\362\022\347\223y\324?\332\033\351C\362[\321?U\210\020\226\264\004\307?\235\360L\177\203n\347?\203u\264y\237\342\302?lD\036:#g\331?\364\311<\2125\227\307?\367\210\307\353\252\300\331?G\027]t\321E\267?)5\3660\013\310\307?EJ\030\2650\365\330?\366\356=mi\037\275?a\324\302\324c;\321?\007\233\341:e4\344?.\216\n\021\302\222\306?\003\251\233\230\220[\340?\3433\210\205\036P\262?QT\375\2301\302\315?5\264c\260\031\256\323?y\350\214\234e\325\312?\021\254\243\315\373\024\307?\360\n\262(\300m\305?\024\023r\013\336\006\322?{\341\257\355\317\301\354?E}\323\365\217\244\332?[\202\213\243B\204\340?o\253\354w\005Y\344?\201\333*\373]A\326?\245;\247\001\017\022\272?y\350\214\234e\325\272?\213\030\313\037\276\275\274?\017\207\242\352\307\214\241?\202f\242_P(\337?\017\207\242\352\307\214\241?\352\344X\211hR\330?f\036\305\232\313K\314?\254\002g\316=\342\341?6\201\250o\272\376\301?\\9\341\231\376\006\335?\326ML\310-x\333?\220\031#\334\341P\324?\\\006&Y\237W\313?\264!\343\276\377\351\300?\271\331\220q\337\377\344?\327\347\325Fo\031\330?\023F-L=\266\323?\354\tZl\234\332\335?h\205\223\330\255=\327?X\357\336\323\226\366\341?\027\005\270\255\262\337\265?\244\241\035\203\315p\315?"
      }
    }
  }
}
node {
  name: "Const_4"
  op: "Const"
  attr {
    key: "_output_shapes"
    value {
      list {
        shape {
          dim {
            size: 704
          }
        }
      }
    }
  }
  attr {
    key: "dtype"
    value {
      type: DT_DOUBLE
    }
  }
  attr {
    key: "value"
    value {
      tensor {
        dtype: DT_DOUBLE
        tensor_shape {
          dim {
            size: 704
          }
        }
        tensor_content: "\000\000\000\000\000\000\350?\000\000\000\000\000\000\320?\000\000\000\000\000\000\340?\000\000\000\000\000\000\350?\000\000\000\000\000\000\360?\000\000\000\000\000\000\320?\000\000\000\000\000\000\340?\000\000\000\000\000\000\360?\000\000\000\000\000\000\340?\000\000\000\000\000\000\360?\000\000\000\000\000\000\360?\000\000\000\000\000\000\320?\000\000\000\000\000\000\360?\000\000\000\000\000\000\000\000\000\000\000\000\000\000\360?\000\000\000\000\000\000\340?\000\000\000\000\000\000\320?\000\000\000\000\000\000\320?\000\000\000\000\000\000\360?\000\000\000\000\000\000\360?\000\000\000\000\000\000\350?\000\000\000\000\000\000\000\000\000\000\000\000\000\000\360?\000\000\000\000\000\000\000\000\000\000\000\000\000\000\350?\000\000\000\000\000\000\000\000\000\000\000\000\000\000\340?\000\000\000\000\000\000\360?\000\000\000\000\000\000\000\000\000\000\000\000\000\000\350?\000\000\000\000\000\000\340?\000\000\000\000\000\000\350?\000\000\000\000\000\000\360?\000\000\000\000\000\000\000\000\000\000\000\000\000\000\000\000\000\000\000\000\000\000\000\000\000\000\000\000\000\000\350?\000\000\000\000\000\000\340?\000\000\000\000\000\000\350?\000\000\000\000\000\000\360?\000\000\000\000\000\000\360?\000\000\000\000\000\000\000\000\000\000\000\000\000\000\360?\000\000\000\000\000\000\340?\000\000\000\000\000\000\340?\000\000\000\000\000\000\000\000\000\000\000\000\000\000\340?\000\000\000\000\000\000\000\000\000\000\000\000\000\000\340?\000\000\000\000\000\000\360?\000\000\000\000\000\000\360?\000\000\000\000\000\000\000\000\000\000\000\000\000\000\000\000\000\000\000\000\000\000\000\000\000\000\000\000\000\000\000\000\000\000\000\000\000\000\360?\000\000\000\000\000\000\360?\000\000\000\000\000\000\340?\000\000\000\000\000\000\360?\000\000\000\000\000\000\350?\000\000\000\000\000\000\000\000\000\000\000\000\000\000\360?\000\000\000\000\000\000\360?\000\000\000\000\000\000\320?\000\000\000\000\000\000\000\000\000\000\000\000\000\000\350?\000\000\000\000\000\000\000\000\000\000\000\000\000\000\350?\000\000\000\000\000\000\360?\000\000\000\000\000\000\000\000\000\000\000\000\000\000\350?\000\000\000\000\000\000\350?\000\000\000\000\000\000\360?\000\000\000\000\000\000\000\000\000\000\000\000\000\000\360?\000\000\000\000\000\000\340?\000\000\000\000\000\000\000\000\000\000\000\000\000\000\340?\000\000\000\000\000\000\350?\000\000\000\000\000\000\350?\000\000\000\000\000\000\340?\000\000\000\000\000\000\360?\000\000\000\000\000\000\360?\000\000\000\000\000\000\360?\000\000\000\000\000\000\340?\000\000\000\000\000\000\000\000\000\000\000\000\000\000\340?\000\000\000\000\000\000\000\000\000\000\000\000\000\000\350?\000\000\000\000\000\000\000\000\000\000\000\000\000\000\360?\000\000\000\000\000\000\000\000\000\000\000\000\000\000\350?\000\000\000\000\000\000\360?\000\000\000\000\000\000\360?\000\000\000\000\000\000\350?\000\000\000\000\000\000\360?\000\000\000\000\000\000\360?\000\000\000\000\000\000\360?\000\000\000\000\000\000\320?\000\000\000\000\000\000\360?\000\000\000\000\000\000\340?\000\000\000\000\000\000\360?\000\000\000\000\000\000\000\000\000\000\000\000\000\000\360?\000\000\000\000\000\000\360?\000\000\000\000\000\000\360?\000\000\000\000\000\000\350?\000\000\000\000\000\000\360?\000\000\000\000\000\000\360?\000\000\000\000\000\000\000\000\000\000\000\000\000\000\360?\000\000\000\000\000\000\320?\000\000\000\000\000\000\360?\000\000\000\000\000\000\360?\000\000\000\000\000\000\000\000\000\000\000\000\000\000\360?\000\000\000\000\000\000\000\000\000\000\000\000\000\000\350?\000\000\000\000\000\000\350?\000\000\000\000\000\000\340?\000\000\000\000\000\000\360?\000\000\000\000\000\000\360?\000\000\000\000\000\000\360?\000\000\000\000\000\000\000\000\000\000\000\000\000\000\000\000\000\000\000\000\000\000\360?\000\000\000\000\000\000\340?\000\000\000\000\000\000\350?\000\000\000\000\000\000\360?\000\000\000\000\000\000\350?\000\000\000\000\000\000\360?\000\000\000\000\000\000\360?\000\000\000\000\000\000\360?\000\000\000\000\000\000\350?\000\000\000\000\000\000\350?\000\000\000\000\000\000\340?\000\000\000\000\000\000\340?\000\000\000\000\000\000\340?\000\000\000\000\000\000\350?\000\000\000\000\000\000\340?\000\000\000\000\000\000\360?\000\000\000\000\000\000\340?\000\000\000\000\000\000\360?\000\000\000\000\000\000\340?\000\000\000\000\000\000\000\000\000\000\000\000\000\000\350?\000\000\000\000\000\000\360?\000\000\000\000\000\000\360?\000\000\000\000\000\000\360?\000\000\000\000\000\000\350?\000\000\000\000\000\000\340?\000\000\000\000\000\000\360?\000\000\000\000\000\000\350?\000\000\000\000\000\000\350?\000\000\000\000\000\000\000\000\000\000\000\000\000\000\000\000\000\000\000\000\000\000\000\000\000\000\000\000\000\000\320?\000\000\000\000\000\000\340?\000\000\000\000\000\000\000\000\000\000\000\000\000\000\360?\000\000\000\000\000\000\360?\000\000\000\000\000\000\350?\000\000\000\000\000\000\000\000\000\000\000\000\000\000\340?\000\000\000\000\000\000\360?\000\000\000\000\000\000\000\000\000\000\000\000\000\000\350?\000\000\000\000\000\000\340?\000\000\000\000\000\000\360?\000\000\000\000\000\000\000\000\000\000\000\000\000\000\350?\000\000\000\000\000\000\340?\000\000\000\000\000\000\000\000\000\000\000\000\000\000\000\000\000\000\000\000\000\000\000\000\000\000\000\000\000\000\360?\000\000\000\000\000\000\360?\000\000\000\000\000\000\350?\000\000\000\000\000\000\350?\000\000\000\000\000\000\340?\000\000\000\000\000\000\350?\000\000\000\000\000\000\340?\000\000\000\000\000\000\360?\000\000\000\000\000\000\340?\000\000\000\000\000\000\000\000\000\000\000\000\000\000\360?\000\000\000\000\000\000\340?\000\000\000\000\000\000\360?\000\000\000\000\000\000\360?\000\000\000\000\000\000\000\000\000\000\000\000\000\000\350?\000\000\000\000\000\000\360?\000\000\000\000\000\000\350?\000\000\000\000\000\000\340?\000\000\000\000\000\000\360?\000\000\000\000\000\000\350?\000\000\000\000\000\000\000\000\000\000\000\000\000\000\000\000\000\000\000\000\000\000\360?\000\000\000\000\000\000\000\000\000\000\000\000\000\000\340?\000\000\000\000\000\000\340?\000\000\000\000\000\000\340?\000\000\000\000\000\000\360?\000\000\000\000\000\000\340?\000\000\000\000\000\000\000\000\000\000\000\000\000\000\360?\000\000\000\000\000\000\350?\000\000\000\000\000\000\340?\000\000\000\000\000\000\000\000\000\000\000\000\000\000\360?\000\000\000\000\000\000\350?\000\000\000\000\000\000\350?\000\000\000\000\000\000\000\000\000\000\000\000\000\000\000\000\000\000\000\000\000\000\350?\000\000\000\000\000\000\000\000\000\000\000\000\000\000\000\000\000\000\000\000\000\000\000\000\000\000\000\000\000\000\360?\000\000\000\000\000\000\360?\000\000\000\000\000\000\350?\000\000\000\000\000\000\000\000\000\000\000\000\000\000\360?\000\000\000\000\000\000\320?\000\000\000\000\000\000\350?\000\000\000\000\000\000\360?\000\000\000\000\000\000\340?\000\000\000\000\000\000\000\000\000\000\000\000\000\000\350?\000\000\000\000\000\000\360?\000\000\000\000\000\000\000\000\000\000\000\000\000\000\350?\000\000\000\000\000\000\360?\000\000\000\000\000\000\340?\000\000\000\000\000\000\000\000\000\000\000\000\000\000\360?\000\000\000\000\000\000\360?\000\000\000\000\000\000\360?\000\000\000\000\000\000\000\000\000\000\000\000\000\000\360?\000\000\000\000\000\000\000\000\000\000\000\000\000\000\350?\000\000\000\000\000\000\340?\000\000\000\000\000\000\340?\000\000\000\000\000\000\000\000\000\000\000\000\000\000\350?\000\000\000\000\000\000\360?\000\000\000\000\000\000\360?\000\000\000\000\000\000\350?\000\000\000\000\000\000\350?\000\000\000\000\000\000\340?\000\000\000\000\000\000\360?\000\000\000\000\000\000\350?\000\000\000\000\000\000\340?\000\000\000\000\000\000\000\000\000\000\000\000\000\000\000\000\000\000\000\000\000\000\320?\000\000\000\000\000\000\000\000\000\000\000\000\000\000\350?\000\000\000\000\000\000\350?\000\000\000\000\000\000\360?\000\000\000\000\000\000\340?\000\000\000\000\000\000\360?\000\000\000\000\000\000\350?\000\000\000\000\000\000\360?\000\000\000\000\000\000\000\000\000\000\000\000\000\000\350?\000\000\000\000\000\000\000\000\000\000\000\000\000\000\360?\000\000\000\000\000\000\000\000\000\000\000\000\000\000\360?\000\000\000\000\000\000\000\000\000\000\000\000\000\000\000\000\000\000\000\000\000\000\000\000\000\000\000\000\000\000\360?\000\000\000\000\000\000\350?\000\000\000\000\000\000\340?\000\000\000\000\000\000\360?\000\000\000\000\000\000\320?\000\000\000\000\000\000\000\000\000\000\000\000\000\000\350?\000\000\000\000\000\000\340?\000\000\000\000\000\000\360?\000\000\000\000\000\000\350?\000\000\000\000\000\000\340?\000\000\000\000\000\000\360?\000\000\000\000\000\000\360?\000\000\000\000\000\000\320?\000\000\000\000\000\000\360?\000\000\000\000\000\000\350?\000\000\000\000\000\000\000\000\000\000\000\000\000\000\000\000\000\000\000\000\000\000\350?\000\000\000\000\000\000\340?\000\000\000\000\000\000\360?\000\000\000\000\000\000\360?\000\000\000\000\000\000\340?\000\000\000\000\000\000\360?\000\000\000\000\000\000\360?\000\000\000\000\000\000\320?\000\000\000\000\000\000\350?\000\000\000\000\000\000\360?\000\000\000\000\000\000\340?\000\000\000\000\000\000\340?\000\000\000\000\000\000\360?\000\000\000\000\000\000\350?\000\000\000\000\000\000\350?\000\000\000\000\000\000\360?\000\000\000\000\000\000\340?\000\000\000\000\000\000\360?\000\000\000\000\000\000\350?\000\000\000\000\000\000\340?\000\000\000\000\000\000\000\000\000\000\000\000\000\000\360?\000\000\000\000\000\000\350?\000\000\000\000\000\000\360?\000\000\000\000\000\000\000\000\000\000\000\000\000\000\350?\000\000\000\000\000\000\350?\000\000\000\000\000\000\000\000\000\000\000\000\000\000\360?\000\000\000\000\000\000\360?\000\000\000\000\000\000\000\000\000\000\000\000\000\000\340?\000\000\000\000\000\000\360?\000\000\000\000\000\000\350?\000\000\000\000\000\000\000\000\000\000\000\000\000\000\350?\000\000\000\000\000\000\360?\000\000\000\000\000\000\360?\000\000\000\000\000\000\360?\000\000\000\000\000\000\000\000\000\000\000\000\000\000\340?\000\000\000\000\000\000\000\000\000\000\000\000\000\000\360?\000\000\000\000\000\000\360?\000\000\000\000\000\000\000\000\000\000\000\000\000\000\000\000\000\000\000\000\000\000\000\000\000\000\000\000\000\000\360?\000\000\000\000\000\000\350?\000\000\000\000\000\000\000\000\000\000\000\000\000\000\360?\000\000\000\000\000\000\360?\000\000\000\000\000\000\350?\000\000\000\000\000\000\000\000\000\000\000\000\000\000\000\000\000\000\000\000\000\000\000\000\000\000\000\000\000\000\360?\000\000\000\000\000\000\000\000\000\000\000\000\000\000\350?\000\000\000\000\000\000\360?\000\000\000\000\000\000\000\000\000\000\000\000\000\000\360?\000\000\000\000\000\000\360?\000\000\000\000\000\000\350?\000\000\000\000\000\000\000\000\000\000\000\000\000\000\360?\000\000\000\000\000\000\360?\000\000\000\000\000\000\360?\000\000\000\000\000\000\360?\000\000\000\000\000\000\340?\000\000\000\000\000\000\340?\000\000\000\000\000\000\320?\000\000\000\000\000\000\340?\000\000\000\000\000\000\340?\000\000\000\000\000\000\350?\000\000\000\000\000\000\360?\000\000\000\000\000\000\360?\000\000\000\000\000\000\360?\000\000\000\000\000\000\000\000\000\000\000\000\000\000\320?\000\000\000\000\000\000\000\000\000\000\000\000\000\000\360?\000\000\000\000\000\000\360?\000\000\000\000\000\000\360?\000\000\000\000\000\000\350?\000\000\000\000\000\000\360?\000\000\000\000\000\000\340?\000\000\000\000\000\000\360?\000\000\000\000\000\000\350?\000\000\000\000\000\000\360?\000\000\000\000\000\000\340?\000\000\000\000\000\000\360?\000\000\000\000\000\000\350?\000\000\000\000\000\000\360?\000\000\000\000\000\000\360?\000\000\000\000\000\000\000\000\000\000\000\000\000\000\360?\000\000\000\000\000\000\360?\000\000\000\000\000\000\360?\000\000\000\000\000\000\320?\000\000\000\000\000\000\000\000\000\000\000\000\000\000\000\000\000\000\000\000\000\000\000\000\000\000\000\000\000\000\340?\000\000\000\000\000\000\350?\000\000\000\000\000\000\360?\000\000\000\000\000\000\340?\000\000\000\000\000\000\000\000\000\000\000\000\000\000\360?\000\000\000\000\000\000\360?\000\000\000\000\000\000\360?\000\000\000\000\000\000\000\000\000\000\000\000\000\000\360?\000\000\000\000\000\000\000\000\000\000\000\000\000\000\340?\000\000\000\000\000\000\360?\000\000\000\000\000\000\000\000\000\000\000\000\000\000\320?\000\000\000\000\000\000\340?\000\000\000\000\000\000\350?\000\000\000\000\000\000\000\000\000\000\000\000\000\000\000\000\000\000\000\000\000\000\350?\000\000\000\000\000\000\000\000\000\000\000\000\000\000\350?\000\000\000\000\000\000\360?\000\000\000\000\000\000\350?\000\000\000\000\000\000\350?\000\000\000\000\000\000\350?\000\000\000\000\000\000\000\000\000\000\000\000\000\000\340?\000\000\000\000\000\000\360?\000\000\000\000\000\000\340?\000\000\000\000\000\000\340?\000\000\000\000\000\000\350?\000\000\000\000\000\000\000\000\000\000\000\000\000\000\360?\000\000\000\000\000\000\340?\000\000\000\000\000\000\340?\000\000\000\000\000\000\340?\000\000\000\000\000\000\320?\000\000\000\000\000\000\340?\000\000\000\000\000\000\320?\000\000\000\000\000\000\360?\000\000\000\000\000\000\340?\000\000\000\000\000\000\000\000\000\000\000\000\000\000\350?\000\000\000\000\000\000\000\000\000\000\000\000\000\000\350?\000\000\000\000\000\000\350?\000\000\000\000\000\000\340?\000\000\000\000\000\000\000\000\000\000\000\000\000\000\350?\000\000\000\000\000\000\360?\000\000\000\000\000\000\350?\000\000\000\000\000\000\320?\000\000\000\000\000\000\360?\000\000\000\000\000\000\000\000\000\000\000\000\000\000\000\000\000\000\000\000\000\000\360?\000\000\000\000\000\000\350?\000\000\000\000\000\000\360?\000\000\000\000\000\000\000\000\000\000\000\000\000\000\360?\000\000\000\000\000\000\340?\000\000\000\000\000\000\360?\000\000\000\000\000\000\360?\000\000\000\000\000\000\000\000\000\000\000\000\000\000\340?\000\000\000\000\000\000\360?\000\000\000\000\000\000\360?\000\000\000\000\000\000\340?\000\000\000\000\000\000\350?\000\000\000\000\000\000\360?\000\000\000\000\000\000\350?\000\000\000\000\000\000\350?\000\000\000\000\000\000\360?\000\000\000\000\000\000\360?\000\000\000\000\000\000\340?\000\000\000\000\000\000\350?\000\000\000\000\000\000\350?\000\000\000\000\000\000\340?\000\000\000\000\000\000\320?\000\000\000\000\000\000\320?\000\000\000\000\000\000\320?\000\000\000\000\000\000\360?\000\000\000\000\000\000\360?\000\000\000\000\000\000\320?\000\000\000\000\000\000\340?\000\000\000\000\000\000\340?\000\000\000\000\000\000\360?\000\000\000\000\000\000\360?\000\000\000\000\000\000\320?\000\000\000\000\000\000\350?\000\000\000\000\000\000\350?\000\000\000\000\000\000\000\000\000\000\000\000\000\000\350?\000\000\000\000\000\000\000\000\000\000\000\000\000\000\340?\000\000\000\000\000\000\360?\000\000\000\000\000\000\360?\000\000\000\000\000\000\360?\000\000\000\000\000\000\350?\000\000\000\000\000\000\350?\000\000\000\000\000\000\360?\000\000\000\000\000\000\360?\000\000\000\000\000\000\350?\000\000\000\000\000\000\360?\000\000\000\000\000\000\320?\000\000\000\000\000\000\350?\000\000\000\000\000\000\360?\000\000\000\000\000\000\320?\000\000\000\000\000\000\350?\000\000\000\000\000\000\360?\000\000\000\000\000\000\360?\000\000\000\000\000\000\360?\000\000\000\000\000\000\350?\000\000\000\000\000\000\360?\000\000\000\000\000\000\000\000\000\000\000\000\000\000\340?\000\000\000\000\000\000\000\000\000\000\000\000\000\000\350?\000\000\000\000\000\000\360?\000\000\000\000\000\000\000\000\000\000\000\000\000\000\360?\000\000\000\000\000\000\000\000\000\000\000\000\000\000\000\000\000\000\000\000\000\000\320?\000\000\000\000\000\000\360?\000\000\000\000\000\000\360?\000\000\000\000\000\000\350?\000\000\000\000\000\000\360?\000\000\000\000\000\000\350?\000\000\000\000\000\000\350?\000\000\000\000\000\000\340?\000\000\000\000\000\000\350?\000\000\000\000\000\000\000\000\000\000\000\000\000\000\360?\000\000\000\000\000\000\360?\000\000\000\000\000\000\360?\000\000\000\000\000\000\350?\000\000\000\000\000\000\000\000\000\000\000\000\000\000\350?\000\000\000\000\000\000\360?\000\000\000\000\000\000\000\000\000\000\000\000\000\000\000\000\000\000\000\000\000\000\360?\000\000\000\000\000\000\350?\000\000\000\000\000\000\340?\000\000\000\000\000\000\340?\000\000\000\000\000\000\360?\000\000\000\000\000\000\000\000\000\000\000\000\000\000\350?\000\000\000\000\000\000\340?\000\000\000\000\000\000\340?\000\000\000\000\000\000\000\000\000\000\000\000\000\000\000\000\000\000\000\000\000\000\360?\000\000\000\000\000\000\350?\000\000\000\000\000\000\350?\000\000\000\000\000\000\340?\000\000\000\000\000\000\320?\000\000\000\000\000\000\360?\000\000\000\000\000\000\350?\000\000\000\000\000\000\350?\000\000\000\000\000\000\340?\000\000\000\000\000\000\000\000\000\000\000\000\000\000\360?\000\000\000\000\000\000\360?\000\000\000\000\000\000\000\000\000\000\000\000\000\000\320?\000\000\000\000\000\000\350?\000\000\000\000\000\000\340?\000\000\000\000\000\000\360?\000\000\000\000\000\000\360?\000\000\000\000\000\000\000\000\000\000\000\000\000\000\360?\000\000\000\000\000\000\350?\000\000\000\000\000\000\360?\000\000\000\000\000\000\360?\000\000\000\000\000\000\360?\000\000\000\000\000\000\340?\000\000\000\000\000\000\350?\000\000\000\000\000\000\360?\000\000\000\000\000\000\360?\000\000\000\000\000\000\000\000\000\000\000\000\000\000\360?\000\000\000\000\000\000\360?\000\000\000\000\000\000\350?\000\000\000\000\000\000\340?\000\000\000\000\000\000\340?\000\000\000\000\000\000\000\000\000\000\000\000\000\000\360?\000\000\000\000\000\000\360?\000\000\000\000\000\000\320?\000\000\000\000\000\000\360?\000\000\000\000\000\000\340?\000\000\000\000\000\000\350?\000\000\000\000\000\000\360?\000\000\000\000\000\000\350?\000\000\000\000\000\000\000\000\000\000\000\000\000\000\350?\000\000\000\000\000\000\000\000\000\000\000\000\000\000\360?\000\000\000\000\000\000\360?\000\000\000\000\000\000\320?\000\000\000\000\000\000\360?\000\000\000\000\000\000\350?\000\000\000\000\000\000\340?\000\000\000\000\000\000\000\000\000\000\000\000\000\000\360?\000\000\000\000\000\000\350?\000\000\000\000\000\000\340?\000\000\000\000\000\000\350?\000\000\000\000\000\000\000\000\000\000\000\000\000\000\000\000\000\000\000\000\000\000\000\000\000\000\000\000\000\000\340?\000\000\000\000\000\000\340?\000\000\000\000\000\000\360?\000\000\000\000\000\000\360?\000\000\000\000\000\000\000\000\000\000\000\000\000\000\340?\000\000\000\000\000\000\000\000\000\000\000\000\000\000\000\000\000\000\000\000\000\000\000\000\000\000\000\000\000\000\000\000\000\000\000\000\000\000\360?\000\000\000\000\000\000\000\000\000\000\000\000\000\000\340?\000\000\000\000\000\000\360?\000\000\000\000\000\000\350?\000\000\000\000\000\000\350?\000\000\000\000\000\000\000\000\000\000\000\000\000\000\360?\000\000\000\000\000\000\360?\000\000\000\000\000\000\350?\000\000\000\000\000\000\360?\000\000\000\000\000\000\350?\000\000\000\000\000\000\000\000\000\000\000\000\000\000\360?\000\000\000\000\000\000\000\000\000\000\000\000\000\000\360?\000\000\000\000\000\000\360?\000\000\000\000\000\000\340?\000\000\000\000\000\000\340?\000\000\000\000\000\000\350?\000\000\000\000\000\000\360?\000\000\000\000\000\000\360?\000\000\000\000\000\000\360?\000\000\000\000\000\000\360?\000\000\000\000\000\000\340?\000\000\000\000\000\000\350?\000\000\000\000\000\000\350?\000\000\000\000\000\000\000\000\000\000\000\000\000\000\000\000\000\000\000\000\000\000\350?\000\000\000\000\000\000\360?\000\000\000\000\000\000\350?\000\000\000\000\000\000\350?\000\000\000\000\000\000\000\000\000\000\000\000\000\000\360?\000\000\000\000\000\000\340?\000\000\000\000\000\000\360?\000\000\000\000\000\000\000\000\000\000\000\000\000\000\360?\000\000\000\000\000\000\340?\000\000\000\000\000\000\000\000\000\000\000\000\000\000\360?\000\000\000\000\000\000\340?\000\000\000\000\000\000\350?\000\000\000\000\000\000\360?\000\000\000\000\000\000\000\000\000\000\000\000\000\000\360?\000\000\000\000\000\000\340?\000\000\000\000\000\000\000\000\000\000\000\000\000\000\350?\000\000\000\000\000\000\000\000\000\000\000\000\000\000\000\000\000\000\000\000\000\000\000\000\000\000\000\000\000\000\350?\000\000\000\000\000\000\360?\000\000\000\000\000\000\360?\000\000\000\000\000\000\360?\000\000\000\000\000\000\360?\000\000\000\000\000\000\350?\000\000\000\000\000\000\340?\000\000\000\000\000\000\340?\000\000\000\000\000\000\340?\000\000\000\000\000\000\320?\000\000\000\000\000\000\360?\000\000\000\000\000\000\320?\000\000\000\000\000\000\360?\000\000\000\000\000\000\000\000\000\000\000\000\000\000\360?\000\000\000\000\000\000\340?\000\000\000\000\000\000\360?\000\000\000\000\000\000\360?\000\000\000\000\000\000\350?\000\000\000\000\000\000\000\000\000\000\000\000\000\000\340?\000\000\000\000\000\000\360?\000\000\000\000\000\000\360?\000\000\000\000\000\000\350?\000\000\000\000\000\000\360?\000\000\000\000\000\000\360?\000\000\000\000\000\000\360?\000\000\000\000\000\000\340?\000\000\000\000\000\000\000\000"
      }
    }
  }
}
node {
  name: "Const_5"
  op: "Const"
  attr {
    key: "_output_shapes"
    value {
      list {
        shape {
          dim {
            size: 704
          }
        }
      }
    }
  }
  attr {
    key: "dtype"
    value {
      type: DT_DOUBLE
    }
  }
  attr {
    key: "value"
    value {
      tensor {
        dtype: DT_DOUBLE
        tensor_shape {
          dim {
            size: 704
          }
        }
